unsigned char g_model[] = {0x1c, 0x0, 0x0, 0x0, 0x54, 0x46, 0x4c, 0x33, 0x14, 0x0, 0x20, 0x0, 0x1c, 0x0, 0x18, 0x0, 0x14, 0x0, 0x10, 0x0, 0xc, 0x0, 0x0, 0x0, 0x8, 0x0, 0x4, 0x0, 0x14, 0x0, 0x0, 0x0, 0x1c, 0x0, 0x0, 0x0, 0x8c, 0x0, 0x0, 0x0, 0xe4, 0x0, 0x0, 0x0, 0x20, 0x20, 0x0, 0x0, 0x30, 0x20, 0x0, 0x0, 0xbc, 0x53, 0x0, 0x0, 0x3, 0x0, 0x0, 0x0, 0x1, 0x0, 0x0, 0x0, 0x4, 0x0, 0x0, 0x0, 0x12, 0xd4, 0xff, 0xff, 0xc, 0x0, 0x0, 0x0, 0x1c, 0x0, 0x0, 0x0, 0x3c, 0x0, 0x0, 0x0, 0xf, 0x0, 0x0, 0x0, 0x73, 0x65, 0x72, 0x76, 0x69, 0x6e, 0x67, 0x5f, 0x64, 0x65, 0x66, 0x61, 0x75, 0x6c, 0x74, 0x0, 0x1, 0x0, 0x0, 0x0, 0x4, 0x0, 0x0, 0x0, 0x90, 0xff, 0xff, 0xff, 0x5d, 0x0, 0x0, 0x0, 0x4, 0x0, 0x0, 0x0, 0x8, 0x0, 0x0, 0x0, 0x6f, 0x75, 0x74, 0x70, 0x75, 0x74, 0x5f, 0x30, 0x0, 0x0, 0x0, 0x0, 0x1, 0x0, 0x0, 0x0, 0x4, 0x0, 0x0, 0x0, 0x1a, 0xd4, 0xff, 0xff, 0x4, 0x0, 0x0, 0x0, 0xc, 0x0, 0x0, 0x0, 0x6b, 0x65, 0x72, 0x61, 0x73, 0x5f, 0x74, 0x65, 0x6e, 0x73, 0x6f, 0x72, 0x0, 0x0, 0x0, 0x0, 0x2, 0x0, 0x0, 0x0, 0x34, 0x0, 0x0, 0x0, 0x4, 0x0, 0x0, 0x0, 0xdc, 0xff, 0xff, 0xff, 0x60, 0x0, 0x0, 0x0, 0x4, 0x0, 0x0, 0x0, 0x13, 0x0, 0x0, 0x0, 0x43, 0x4f, 0x4e, 0x56, 0x45, 0x52, 0x53, 0x49, 0x4f, 0x4e, 0x5f, 0x4d, 0x45, 0x54, 0x41, 0x44, 0x41, 0x54, 0x41, 0x0, 0x8, 0x0, 0xc, 0x0, 0x8, 0x0, 0x4, 0x0, 0x8, 0x0, 0x0, 0x0, 0x5f, 0x0, 0x0, 0x0, 0x4, 0x0, 0x0, 0x0, 0x13, 0x0, 0x0, 0x0, 0x6d, 0x69, 0x6e, 0x5f, 0x72, 0x75, 0x6e, 0x74, 0x69, 0x6d, 0x65, 0x5f, 0x76, 0x65, 0x72, 0x73, 0x69, 0x6f, 0x6e, 0x0, 0x61, 0x0, 0x0, 0x0, 0x38, 0x1f, 0x0, 0x0, 0x30, 0x1f, 0x0, 0x0, 0x0, 0x1f, 0x0, 0x0, 0xf0, 0x1c, 0x0, 0x0, 0xe0, 0x14, 0x0, 0x0, 0xd0, 0x4, 0x0, 0x0, 0xbc, 0x4, 0x0, 0x0, 0xa8, 0x4, 0x0, 0x0, 0xa0, 0x4, 0x0, 0x0, 0x84, 0x4, 0x0, 0x0, 0x7c, 0x4, 0x0, 0x0, 0x68, 0x4, 0x0, 0x0, 0x38, 0x4, 0x0, 0x0, 0x28, 0x3, 0x0, 0x0, 0x14, 0x3, 0x0, 0x0, 0xc, 0x3, 0x0, 0x0, 0x4, 0x3, 0x0, 0x0, 0xfc, 0x2, 0x0, 0x0, 0xf4, 0x2, 0x0, 0x0, 0xec, 0x2, 0x0, 0x0, 0xe4, 0x2, 0x0, 0x0, 0xdc, 0x2, 0x0, 0x0, 0xd4, 0x2, 0x0, 0x0, 0xcc, 0x2, 0x0, 0x0, 0xc4, 0x2, 0x0, 0x0, 0xbc, 0x2, 0x0, 0x0, 0xb4, 0x2, 0x0, 0x0, 0xac, 0x2, 0x0, 0x0, 0xa4, 0x2, 0x0, 0x0, 0x9c, 0x2, 0x0, 0x0, 0x94, 0x2, 0x0, 0x0, 0x8c, 0x2, 0x0, 0x0, 0x84, 0x2, 0x0, 0x0, 0x7c, 0x2, 0x0, 0x0, 0x74, 0x2, 0x0, 0x0, 0x6c, 0x2, 0x0, 0x0, 0x64, 0x2, 0x0, 0x0, 0x5c, 0x2, 0x0, 0x0, 0x54, 0x2, 0x0, 0x0, 0x4c, 0x2, 0x0, 0x0, 0x44, 0x2, 0x0, 0x0, 0x3c, 0x2, 0x0, 0x0, 0x34, 0x2, 0x0, 0x0, 0x2c, 0x2, 0x0, 0x0, 0x24, 0x2, 0x0, 0x0, 0x1c, 0x2, 0x0, 0x0, 0x14, 0x2, 0x0, 0x0, 0xc, 0x2, 0x0, 0x0, 0x4, 0x2, 0x0, 0x0, 0xfc, 0x1, 0x0, 0x0, 0xf4, 0x1, 0x0, 0x0, 0xec, 0x1, 0x0, 0x0, 0xe4, 0x1, 0x0, 0x0, 0xdc, 0x1, 0x0, 0x0, 0xd4, 0x1, 0x0, 0x0, 0xcc, 0x1, 0x0, 0x0, 0xc4, 0x1, 0x0, 0x0, 0xbc, 0x1, 0x0, 0x0, 0xb4, 0x1, 0x0, 0x0, 0xac, 0x1, 0x0, 0x0, 0xa4, 0x1, 0x0, 0x0, 0x9c, 0x1, 0x0, 0x0, 0x94, 0x1, 0x0, 0x0, 0x8c, 0x1, 0x0, 0x0, 0x84, 0x1, 0x0, 0x0, 0x7c, 0x1, 0x0, 0x0, 0x74, 0x1, 0x0, 0x0, 0x6c, 0x1, 0x0, 0x0, 0x64, 0x1, 0x0, 0x0, 0x5c, 0x1, 0x0, 0x0, 0x54, 0x1, 0x0, 0x0, 0x4c, 0x1, 0x0, 0x0, 0x44, 0x1, 0x0, 0x0, 0x3c, 0x1, 0x0, 0x0, 0x34, 0x1, 0x0, 0x0, 0x2c, 0x1, 0x0, 0x0, 0x24, 0x1, 0x0, 0x0, 0x1c, 0x1, 0x0, 0x0, 0x14, 0x1, 0x0, 0x0, 0xc, 0x1, 0x0, 0x0, 0x4, 0x1, 0x0, 0x0, 0xfc, 0x0, 0x0, 0x0, 0xf4, 0x0, 0x0, 0x0, 0xec, 0x0, 0x0, 0x0, 0xe4, 0x0, 0x0, 0x0, 0xdc, 0x0, 0x0, 0x0, 0xd4, 0x0, 0x0, 0x0, 0xcc, 0x0, 0x0, 0x0, 0xc4, 0x0, 0x0, 0x0, 0xbc, 0x0, 0x0, 0x0, 0xb4, 0x0, 0x0, 0x0, 0xac, 0x0, 0x0, 0x0, 0xa4, 0x0, 0x0, 0x0, 0x9c, 0x0, 0x0, 0x0, 0x94, 0x0, 0x0, 0x0, 0x74, 0x0, 0x0, 0x0, 0x4, 0x0, 0x0, 0x0, 0x1a, 0xd6, 0xff, 0xff, 0x4, 0x0, 0x0, 0x0, 0x60, 0x0, 0x0, 0x0, 0x10, 0x0, 0x0, 0x0, 0x0, 0x0, 0x0, 0x0, 0x8, 0x0, 0xe, 0x0, 0x8, 0x0, 0x4, 0x0, 0x8, 0x0, 0x0, 0x0, 0x10, 0x0, 0x0, 0x0, 0x24, 0x0, 0x0, 0x0, 0x0, 0x0, 0x6, 0x0, 0x8, 0x0, 0x4, 0x0, 0x6, 0x0, 0x0, 0x0, 0x4, 0x0, 0x0, 0x0, 0x0, 0x0, 0x0, 0x0, 0xc, 0x0, 0x18, 0x0, 0x14, 0x0, 0x10, 0x0, 0xc, 0x0, 0x4, 0x0, 0xc, 0x0, 0x0, 0x0, 0xed, 0xb, 0xd4, 0x32, 0x69, 0x7f, 0xc5, 0x46, 0x2, 0x0, 0x0, 0x0, 0x2, 0x0, 0x0, 0x0, 0x4, 0x0, 0x0, 0x0, 0x6, 0x0, 0x0, 0x0, 0x32, 0x2e, 0x31, 0x39, 0x2e, 0x30, 0x0, 0x0, 0x86, 0xd6, 0xff, 0xff, 0x4, 0x0, 0x0, 0x0, 0x10, 0x0, 0x0, 0x0, 0x31, 0x2e, 0x31, 0x34, 0x2e, 0x30, 0x0, 0x0, 0x0, 0x0, 0x0, 0x0, 0x0, 0x0, 0x0, 0x0, 0xc8, 0xae, 0xff, 0xff, 0xcc, 0xae, 0xff, 0xff, 0xd0, 0xae, 0xff, 0xff, 0xd4, 0xae, 0xff, 0xff, 0xd8, 0xae, 0xff, 0xff, 0xdc, 0xae, 0xff, 0xff, 0xe0, 0xae, 0xff, 0xff, 0xe4, 0xae, 0xff, 0xff, 0xe8, 0xae, 0xff, 0xff, 0xec, 0xae, 0xff, 0xff, 0xf0, 0xae, 0xff, 0xff, 0xf4, 0xae, 0xff, 0xff, 0xf8, 0xae, 0xff, 0xff, 0xfc, 0xae, 0xff, 0xff, 0x0, 0xaf, 0xff, 0xff, 0x4, 0xaf, 0xff, 0xff, 0x8, 0xaf, 0xff, 0xff, 0xc, 0xaf, 0xff, 0xff, 0x10, 0xaf, 0xff, 0xff, 0x14, 0xaf, 0xff, 0xff, 0x18, 0xaf, 0xff, 0xff, 0x1c, 0xaf, 0xff, 0xff, 0x20, 0xaf, 0xff, 0xff, 0x24, 0xaf, 0xff, 0xff, 0x28, 0xaf, 0xff, 0xff, 0x2c, 0xaf, 0xff, 0xff, 0x30, 0xaf, 0xff, 0xff, 0x34, 0xaf, 0xff, 0xff, 0x38, 0xaf, 0xff, 0xff, 0x3c, 0xaf, 0xff, 0xff, 0x40, 0xaf, 0xff, 0xff, 0x44, 0xaf, 0xff, 0xff, 0x48, 0xaf, 0xff, 0xff, 0x4c, 0xaf, 0xff, 0xff, 0x50, 0xaf, 0xff, 0xff, 0x54, 0xaf, 0xff, 0xff, 0x58, 0xaf, 0xff, 0xff, 0x5c, 0xaf, 0xff, 0xff, 0x60, 0xaf, 0xff, 0xff, 0x64, 0xaf, 0xff, 0xff, 0x68, 0xaf, 0xff, 0xff, 0x6c, 0xaf, 0xff, 0xff, 0x70, 0xaf, 0xff, 0xff, 0x74, 0xaf, 0xff, 0xff, 0x78, 0xaf, 0xff, 0xff, 0x7c, 0xaf, 0xff, 0xff, 0x80, 0xaf, 0xff, 0xff, 0x84, 0xaf, 0xff, 0xff, 0x88, 0xaf, 0xff, 0xff, 0x8c, 0xaf, 0xff, 0xff, 0x90, 0xaf, 0xff, 0xff, 0x94, 0xaf, 0xff, 0xff, 0x98, 0xaf, 0xff, 0xff, 0x9c, 0xaf, 0xff, 0xff, 0xa0, 0xaf, 0xff, 0xff, 0xa4, 0xaf, 0xff, 0xff, 0xa8, 0xaf, 0xff, 0xff, 0xac, 0xaf, 0xff, 0xff, 0xb0, 0xaf, 0xff, 0xff, 0xb4, 0xaf, 0xff, 0xff, 0xb8, 0xaf, 0xff, 0xff, 0xbc, 0xaf, 0xff, 0xff, 0xc0, 0xaf, 0xff, 0xff, 0xc4, 0xaf, 0xff, 0xff, 0xc8, 0xaf, 0xff, 0xff, 0xcc, 0xaf, 0xff, 0xff, 0xd0, 0xaf, 0xff, 0xff, 0xd4, 0xaf, 0xff, 0xff, 0xd8, 0xaf, 0xff, 0xff, 0xdc, 0xaf, 0xff, 0xff, 0xe0, 0xaf, 0xff, 0xff, 0xe4, 0xaf, 0xff, 0xff, 0xe8, 0xaf, 0xff, 0xff, 0xec, 0xaf, 0xff, 0xff, 0xf0, 0xaf, 0xff, 0xff, 0xf4, 0xaf, 0xff, 0xff, 0xf8, 0xaf, 0xff, 0xff, 0xfc, 0xaf, 0xff, 0xff, 0x0, 0xb0, 0xff, 0xff, 0x4, 0xb0, 0xff, 0xff, 0xe2, 0xd7, 0xff, 0xff, 0x4, 0x0, 0x0, 0x0, 0x4, 0x0, 0x0, 0x0, 0x4a, 0x89, 0x7, 0xbe, 0xf2, 0xd7, 0xff, 0xff, 0x4, 0x0, 0x0, 0x0, 0x0, 0x1, 0x0, 0x0, 0x5c, 0x19, 0x1b, 0x3e, 0x8b, 0x5c, 0xe1, 0x3d, 0x4f, 0x2a, 0x6e, 0x3e, 0xb, 0xca, 0x79, 0x3e, 0xe9, 0x2d, 0xb6, 0x3e, 0x1, 0xd, 0xb7, 0x3d, 0x40, 0xb8, 0xdb, 0x3e, 0x36, 0x52, 0xf2, 0x3e, 0x2, 0xb6, 0x8e, 0x3e, 0x16, 0x7f, 0x55, 0x3e, 0x88, 0xf4, 0xf6, 0x3e, 0xaa, 0x39, 0x82, 0x3e, 0xd3, 0x1d, 0x69, 0x3e, 0x66, 0x10, 0xa9, 0x3e, 0x28, 0x4e, 0xe4, 0x3e, 0xef, 0x6d, 0xa0, 0x3e, 0xb8, 0x8f, 0x8d, 0x3f, 0xf8, 0x39, 0x82, 0x3f, 0x66, 0x33, 0x7c, 0x3f, 0x7f, 0x25, 0x99, 0x3f, 0x8b, 0x4a, 0x82, 0x3f, 0x2, 0xe7, 0x71, 0x3f, 0x38, 0x70, 0x9c, 0x3f, 0x1b, 0x4c, 0xa3, 0x3f, 0x20, 0x1a, 0x7f, 0x3f, 0x6e, 0xb4, 0x96, 0x3f, 0x75, 0xcd, 0xb4, 0x3f, 0xbb, 0xb2, 0x8e, 0x3f, 0xc, 0x78, 0x91, 0x3f, 0xed, 0xcf, 0x9f, 0x3f, 0xa2, 0x2d, 0xad, 0x3f, 0xb, 0xd6, 0x7b, 0x3f, 0x8f, 0xc6, 0x2e, 0xbd, 0xae, 0xc3, 0x3f, 0xbc, 0x4a, 0x25, 0xdb, 0xbd, 0x68, 0xc0, 0xab, 0xbd, 0x66, 0xdd, 0x0, 0x3e, 0xd2, 0x87, 0xcb, 0xbb, 0x92, 0x7d, 0xe3, 0xbc, 0x62, 0x7c, 0x2, 0xbe, 0x68, 0x21, 0x1, 0xbe, 0x93, 0x31, 0xe, 0x3e, 0xb2, 0x84, 0x3f, 0x3e, 0x46, 0x9, 0x8a, 0xbd, 0xc4, 0x35, 0x36, 0xbe, 0xca, 0xcf, 0xfa, 0xbc, 0x3f, 0xe4, 0xf0, 0x3d, 0x91, 0x9e, 0xfb, 0xbd, 0x3f, 0xca, 0x19, 0x3e, 0x47, 0xb5, 0x34, 0x3d, 0xe2, 0xbe, 0xa4, 0x3e, 0xd5, 0x50, 0x93, 0x3e, 0xb8, 0x94, 0xa6, 0x3e, 0x0, 0x18, 0xe5, 0x3d, 0xd4, 0xe9, 0x70, 0x3e, 0xe9, 0x34, 0x9e, 0x3e, 0x63, 0xdb, 0x83, 0x3e, 0xd, 0x95, 0x52, 0x3d, 0x75, 0xb6, 0xa9, 0x3e, 0x79, 0x98, 0x5d, 0x3e, 0x92, 0xd1, 0xac, 0x3e, 0xe6, 0x7f, 0x90, 0x3e, 0xd9, 0x33, 0xb5, 0x3e, 0xfa, 0x74, 0xa3, 0x3e, 0xfe, 0xd8, 0xff, 0xff, 0x4, 0x0, 0x0, 0x0, 0x20, 0x0, 0x0, 0x0, 0x7, 0xab, 0x1, 0x3e, 0x6f, 0xdf, 0x45, 0x3c, 0x51, 0xdd, 0x67, 0x3c, 0x77, 0x38, 0xef, 0x3d, 0xb4, 0x1e, 0x3f, 0x3e, 0x9f, 0x24, 0xa7, 0xbd, 0xd6, 0xd9, 0xbe, 0x3d, 0xb9, 0x9e, 0xce, 0x3d, 0x2a, 0xd9, 0xff, 0xff, 0x4, 0x0, 0x0, 0x0, 0x4, 0x0, 0x0, 0x0, 0x10, 0x0, 0x0, 0x0, 0x60, 0xb1, 0xff, 0xff, 0x3e, 0xd9, 0xff, 0xff, 0x4, 0x0, 0x0, 0x0, 0xc, 0x0, 0x0, 0x0, 0x1, 0x0, 0x0, 0x0, 0x0, 0x0, 0x0, 0x0, 0x2, 0x0, 0x0, 0x0, 0x7c, 0xb1, 0xff, 0xff, 0x5a, 0xd9, 0xff, 0xff, 0x4, 0x0, 0x0, 0x0, 0x4, 0x0, 0x0, 0x0, 0x0, 0x0, 0x0, 0x0, 0x6a, 0xd9, 0xff, 0xff, 0x4, 0x0, 0x0, 0x0, 0x4, 0x0, 0x0, 0x0, 0x1, 0x0, 0x0, 0x0, 0x7a, 0xd9, 0xff, 0xff, 0x4, 0x0, 0x0, 0x0, 0x0, 0x10, 0x0, 0x0, 0xba, 0x46, 0xae, 0xbd, 0xa, 0x59, 0xf7, 0x3e, 0x67, 0xe8, 0x37, 0xbe, 0xb4, 0x1c, 0x32, 0x3f, 0xcf, 0x92, 0xed, 0x3e, 0x49, 0xfa, 0xde, 0x3d, 0x9f, 0x1a, 0xc2, 0x3e, 0xc8, 0xea, 0x80, 0x3e, 0xf2, 0x8b, 0xa7, 0xbd, 0x5b, 0xf8, 0xea, 0xbc, 0xac, 0x88, 0x8d, 0xbe, 0xc9, 0x35, 0xd0, 0x3d, 0x9f, 0x5d, 0xbd, 0x3e, 0x7e, 0x21, 0x1c, 0x3e, 0x58, 0xd4, 0xf1, 0xbe, 0xa8, 0xbb, 0x2c, 0x3e, 0xd6, 0x0, 0x9f, 0xbe, 0xff, 0xaa, 0x3, 0x3f, 0x67, 0xd3, 0xdf, 0x3d, 0xfb, 0xe4, 0x19, 0x3f, 0xa9, 0xf8, 0x2a, 0xbf, 0xfe, 0xdc, 0x19, 0x3d, 0x78, 0xbb, 0xd7, 0x3e, 0xcd, 0x33, 0xd5, 0xbe, 0xae, 0x2d, 0xdd, 0xbd, 0x4e, 0xd2, 0x4d, 0xbd, 0x36, 0x4a, 0x94, 0xbe, 0xb3, 0x1, 0xe4, 0xbe, 0x9f, 0x50, 0xb1, 0x3e, 0x61, 0x72, 0xac, 0xbe, 0x93, 0xad, 0x25, 0x3d, 0x60, 0x1a, 0xde, 0xbe, 0x9d, 0xd5, 0x45, 0xbe, 0xaa, 0xb0, 0x22, 0x3d, 0xe5, 0x6d, 0x80, 0xbd, 0x2, 0xa6, 0x25, 0x3e, 0xa8, 0xe1, 0x84, 0x3e, 0xca, 0xe1, 0x3b, 0xbe, 0xee, 0xd4, 0xa8, 0x3d, 0xf6, 0xe0, 0x69, 0xbe, 0x4f, 0x6b, 0xfb, 0xbd, 0x90, 0x3d, 0x14, 0x3e, 0xab, 0xc6, 0x1, 0xbd, 0xbd, 0x28, 0x6b, 0xbe, 0xe3, 0x81, 0x8, 0xbe, 0xd4, 0x91, 0xc0, 0x3e, 0xd5, 0x4a, 0x5c, 0xbe, 0x1f, 0x9b, 0x7e, 0x3e, 0x78, 0x4f, 0xd2, 0x3e, 0x81, 0x28, 0x4b, 0xbe, 0x12, 0x3d, 0x2d, 0x3f, 0xa8, 0xcd, 0x1f, 0x3d, 0x98, 0x6a, 0x99, 0x3c, 0xb0, 0xef, 0x23, 0xbf, 0x78, 0xf3, 0x0, 0xbf, 0x25, 0x5a, 0x96, 0x3e, 0x61, 0xc2, 0x86, 0x3c, 0x1d, 0x5e, 0xcb, 0xbd, 0x1e, 0xea, 0xe9, 0x3e, 0x80, 0x12, 0xca, 0x3e, 0x40, 0x78, 0xc4, 0xbe, 0x65, 0xe3, 0x8d, 0xbf, 0x1d, 0x83, 0x44, 0x3f, 0x98, 0x4f, 0xd5, 0x3e, 0x53, 0xdf, 0xbb, 0x3c, 0xe8, 0x4b, 0x22, 0x3f, 0xc8, 0xa2, 0x2e, 0x3e, 0x5a, 0x4e, 0x99, 0x3e, 0x50, 0x9d, 0x23, 0xbe, 0x49, 0x17, 0x70, 0xbe, 0x82, 0x52, 0x95, 0xbd, 0xbe, 0x6e, 0x7e, 0xbe, 0xba, 0x32, 0xae, 0xbd, 0x41, 0xe1, 0x9c, 0x3d, 0x18, 0xd7, 0x9f, 0xbe, 0x66, 0xee, 0xfa, 0xbe, 0xf1, 0xf8, 0x2d, 0x3e, 0xac, 0xd, 0xcf, 0xbe, 0xf1, 0xbc, 0x5b, 0xbe, 0x61, 0x26, 0xe8, 0xbc, 0x38, 0x2a, 0x4f, 0xbe, 0xf5, 0xeb, 0xf4, 0x3d, 0x2d, 0x69, 0x16, 0x3f, 0x4c, 0x5, 0xe8, 0xbc, 0x3a, 0x88, 0xcc, 0xbd, 0xb4, 0xc3, 0x7d, 0xbc, 0xb2, 0xf6, 0x1e, 0xbf, 0x3f, 0x68, 0x1c, 0x3d, 0x82, 0x19, 0xa0, 0x3e, 0x1b, 0xf, 0x43, 0xbe, 0x9a, 0x6a, 0x3f, 0xbe, 0x99, 0x7b, 0x29, 0xbe, 0x43, 0x17, 0x9f, 0x3e, 0xe1, 0x75, 0x3b, 0xbf, 0x86, 0xfa, 0x2d, 0xbe, 0x83, 0x7d, 0x1c, 0x3f, 0x63, 0xfa, 0x93, 0x3e, 0xf5, 0x5f, 0x88, 0xbe, 0x87, 0x40, 0xee, 0xbe, 0x86, 0x83, 0xe0, 0x3e, 0xe0, 0x99, 0xfc, 0x3d, 0x98, 0xdc, 0xf9, 0xbe, 0xb8, 0xc, 0x60, 0x3e, 0x66, 0xfc, 0xd9, 0x3c, 0xeb, 0x1e, 0xb4, 0xbe, 0x6f, 0xc5, 0x49, 0xbd, 0xae, 0x4f, 0x11, 0xbf, 0x60, 0x48, 0x92, 0xbe, 0xcd, 0xf8, 0xa6, 0x3d, 0xc, 0x9a, 0xa0, 0x3e, 0x3d, 0xa8, 0x36, 0xbf, 0x35, 0x70, 0x6b, 0x3d, 0x8d, 0x79, 0x3a, 0xbd, 0x4b, 0xbc, 0xa5, 0xbe, 0x48, 0xd9, 0x95, 0x3e, 0xeb, 0xd, 0x12, 0x3f, 0x23, 0xea, 0xee, 0x3e, 0x43, 0x8f, 0x58, 0xbe, 0xe4, 0x82, 0x6b, 0xbe, 0xfe, 0x77, 0xdb, 0x3e, 0xd1, 0xfe, 0xbf, 0x3d, 0x4, 0xae, 0xa2, 0x3d, 0x9c, 0xfb, 0x70, 0xbe, 0xa0, 0xcd, 0x56, 0x3e, 0x9c, 0x6a, 0xb4, 0x3d, 0x1a, 0x1e, 0xc2, 0xbe, 0xc1, 0x0, 0x66, 0xbb, 0x0, 0xe0, 0xb6, 0xbc, 0x73, 0x52, 0xed, 0xbe, 0x6a, 0xb, 0x1e, 0x3f, 0xd4, 0x18, 0xb6, 0xbe, 0x22, 0x35, 0xad, 0xbe, 0xa6, 0x33, 0x1c, 0x3e, 0x28, 0xb4, 0xa5, 0x3e, 0xb1, 0x6f, 0x2d, 0x3f, 0x3a, 0x3c, 0xc0, 0xbe, 0x4b, 0x45, 0xb0, 0xbe, 0xef, 0xc5, 0x5c, 0xbe, 0x85, 0x88, 0xc0, 0x3b, 0x5a, 0x71, 0x3a, 0xbe, 0xb, 0xbc, 0xe4, 0xbe, 0x14, 0xee, 0x2c, 0xbe, 0x8f, 0x94, 0x64, 0xbd, 0x81, 0xda, 0x55, 0xbe, 0x4a, 0x79, 0x63, 0xbe, 0x11, 0x3d, 0x4, 0x3e, 0xb0, 0x96, 0x44, 0x3e, 0xb9, 0xdb, 0xdc, 0x3c, 0xd3, 0x6f, 0x83, 0x3e, 0x46, 0x1f, 0x4f, 0x3e, 0x58, 0xd1, 0xa8, 0xbd, 0x8, 0xde, 0x4, 0x3f, 0xe, 0x23, 0x1c, 0x3d, 0x60, 0x12, 0x80, 0x3d, 0x7c, 0xa7, 0xf8, 0x3e, 0xca, 0xc8, 0x6d, 0x3e, 0x87, 0x25, 0xd9, 0xbe, 0xa6, 0x4f, 0x8e, 0xbe, 0xf8, 0x59, 0x4, 0x3f, 0xf4, 0xb7, 0x6e, 0x3e, 0x3a, 0x4f, 0x84, 0x3d, 0xe0, 0x47, 0xeb, 0xbd, 0x82, 0x2b, 0x2c, 0x3d, 0x57, 0x68, 0x6d, 0xbe, 0x45, 0x9, 0x89, 0xbe, 0xda, 0xa1, 0xc, 0xbf, 0xd1, 0x64, 0xd8, 0xbe, 0xb0, 0xdf, 0x64, 0xbf, 0xd, 0xc6, 0xb4, 0xbd, 0xea, 0xa3, 0x41, 0x3e, 0x39, 0xbf, 0x57, 0xbe, 0x6a, 0xdc, 0x42, 0xbe, 0xfa, 0xf6, 0x67, 0xbd, 0xb8, 0xb0, 0x19, 0xbf, 0xb4, 0x54, 0xac, 0xbe, 0x5d, 0xd9, 0xba, 0x3d, 0x55, 0xbb, 0xc1, 0xbe, 0x6, 0x12, 0xa4, 0xbe, 0xba, 0x2f, 0x84, 0x3d, 0x82, 0x84, 0x8f, 0xbe, 0xb4, 0x88, 0x8, 0xbe, 0x85, 0x2c, 0xfa, 0xbe, 0x2b, 0x13, 0x21, 0x3f, 0x62, 0xfc, 0x81, 0xbe, 0x8e, 0x1f, 0x2e, 0x3e, 0xe8, 0x57, 0x92, 0x3e, 0xec, 0xb, 0xf2, 0xbe, 0x89, 0x76, 0x2a, 0x3e, 0xfa, 0x42, 0x59, 0xbe, 0x82, 0xac, 0xd1, 0xbe, 0xc5, 0x6c, 0xe2, 0x3d, 0x26, 0x3f, 0xfc, 0xbe, 0xea, 0xa2, 0x3c, 0xbf, 0xa1, 0x6c, 0x3b, 0xbc, 0x7c, 0xb2, 0xd3, 0xbe, 0xdc, 0x2f, 0x2a, 0xbe, 0x56, 0xeb, 0x60, 0x3e, 0x86, 0x5c, 0x2a, 0x3f, 0xf, 0x8f, 0x7e, 0x3d, 0x68, 0x7d, 0xcf, 0xbe, 0x13, 0xec, 0x86, 0xbd, 0xab, 0x62, 0x3e, 0xbe, 0x6c, 0x84, 0xda, 0x3e, 0x3a, 0x18, 0x4a, 0xbe, 0x8c, 0xfc, 0x8f, 0xbe, 0x77, 0x2a, 0xfd, 0xbe, 0x52, 0xb, 0x85, 0x3e, 0x3f, 0x18, 0x44, 0xbf, 0xbc, 0xad, 0x2d, 0x3e, 0x79, 0xb5, 0x2, 0x3f, 0xd1, 0xb9, 0xf2, 0x3e, 0xa4, 0x2, 0xdf, 0xbe, 0x17, 0xdc, 0xcc, 0xbd, 0x7c, 0x19, 0x4, 0xbf, 0x9f, 0x0, 0xab, 0xbe, 0xf8, 0xd5, 0x83, 0x3e, 0x47, 0xd, 0xec, 0xbd, 0xb3, 0x81, 0xae, 0x3d, 0x7, 0x89, 0x19, 0x3f, 0xb7, 0xf2, 0xfc, 0x3e, 0xdd, 0x77, 0xc, 0xbf, 0x5b, 0x2b, 0x5a, 0xbd, 0x99, 0xe3, 0xa2, 0x3e, 0x88, 0x17, 0xf6, 0x3e, 0xf1, 0x27, 0x2d, 0xbe, 0xbe, 0x89, 0x6, 0x3f, 0xe5, 0xdf, 0x7e, 0x3e, 0xe6, 0x98, 0xa2, 0xbe, 0xe3, 0xd0, 0xd, 0xbb, 0x73, 0x93, 0xb7, 0xbe, 0x3c, 0x4a, 0x60, 0x3d, 0x2f, 0x49, 0xd3, 0xbc, 0x6c, 0x20, 0x5c, 0xbe, 0xe7, 0xa5, 0x0, 0x3f, 0xc, 0x92, 0x85, 0xbe, 0xd0, 0x80, 0x6f, 0x3e, 0x1, 0x9f, 0x66, 0xbe, 0x0, 0xac, 0x78, 0xbf, 0xf4, 0xc6, 0x84, 0xbd, 0x59, 0xdf, 0xd1, 0xbe, 0x85, 0xf4, 0x91, 0xbe, 0x11, 0x91, 0xeb, 0x3d, 0x6f, 0xe6, 0x36, 0xbe, 0xb7, 0xac, 0xb6, 0x3d, 0x16, 0x86, 0x77, 0x3e, 0x80, 0xf3, 0x1, 0x3f, 0xab, 0xd7, 0x8c, 0x3e, 0x30, 0xd7, 0x39, 0xbd, 0xa3, 0xb1, 0x8d, 0xbe, 0xfd, 0xa2, 0xda, 0xbe, 0x5f, 0x1, 0x86, 0xbe, 0x9c, 0xf7, 0xf1, 0xbe, 0x20, 0xdc, 0xa0, 0xbe, 0xaa, 0x31, 0xf4, 0x3d, 0x34, 0x5c, 0xf, 0x3e, 0xc0, 0xe8, 0x19, 0x3e, 0x58, 0xc, 0x18, 0x3c, 0x34, 0x4d, 0xb7, 0x3d, 0x27, 0x60, 0xc6, 0x3d, 0x32, 0x8a, 0x14, 0x3f, 0x67, 0x70, 0xa3, 0x3e, 0xaa, 0x45, 0x19, 0x3f, 0xda, 0x30, 0x76, 0x3e, 0xa9, 0xf7, 0xba, 0x3e, 0x78, 0x42, 0x5f, 0x3c, 0x3f, 0xe1, 0x3d, 0xbe, 0x5f, 0x1e, 0x45, 0xbe, 0xc4, 0x3e, 0xc5, 0x3d, 0x88, 0xf, 0x1d, 0x3f, 0x16, 0x43, 0x45, 0xbc, 0x49, 0x86, 0x31, 0xbe, 0x22, 0xa1, 0x88, 0x3d, 0xa2, 0xe8, 0x77, 0xbd, 0x24, 0x78, 0x10, 0x3e, 0x7f, 0x1c, 0xc3, 0x3e, 0x46, 0x1a, 0x34, 0x3f, 0xc8, 0x96, 0xa5, 0xbe, 0xfe, 0x72, 0x8b, 0xbd, 0x5d, 0xda, 0xb3, 0x3d, 0xfc, 0x21, 0x21, 0xbf, 0x35, 0x86, 0xfe, 0x3d, 0xe3, 0xfd, 0xb8, 0x3d, 0xac, 0xf1, 0x76, 0xbe, 0xc1, 0x84, 0x66, 0xbe, 0x6a, 0x21, 0xb8, 0x3e, 0x19, 0xd6, 0xa6, 0xbe, 0xcc, 0xc0, 0xe2, 0xbd, 0xa4, 0x5d, 0x91, 0xbe, 0x25, 0x36, 0x89, 0x3e, 0x3c, 0xfa, 0xe9, 0xbe, 0xea, 0xdd, 0xef, 0xbd, 0x89, 0x9, 0x23, 0x3e, 0xe7, 0x7f, 0x10, 0x3f, 0x51, 0x22, 0xaa, 0xbd, 0x5f, 0x66, 0x39, 0xbc, 0xd2, 0xc, 0x9a, 0xbe, 0x82, 0x6a, 0x76, 0xbe, 0x9, 0xb2, 0x7a, 0x3e, 0xda, 0x59, 0xc3, 0x3d, 0x6f, 0x41, 0x54, 0xbe, 0x85, 0xc3, 0x51, 0x39, 0x31, 0x1, 0x38, 0x3f, 0xe, 0xe3, 0x82, 0xbe, 0x8c, 0x82, 0x8e, 0x3e, 0x6f, 0x98, 0x97, 0x3e, 0x62, 0x3, 0x5, 0xbf, 0x53, 0xc8, 0xa7, 0x3c, 0x46, 0x9b, 0xcd, 0x3d, 0xc6, 0xf, 0xa9, 0x3d, 0x41, 0x9a, 0xcc, 0xbe, 0xd0, 0x14, 0xa3, 0xbe, 0x54, 0x57, 0x56, 0x3e, 0xaf, 0x3, 0x7c, 0xbe, 0xe9, 0xe2, 0xa1, 0x3d, 0x78, 0xfe, 0x5b, 0x3a, 0x5a, 0xd3, 0xdf, 0x3d, 0x75, 0x70, 0xbf, 0xbe, 0xf3, 0x93, 0xf9, 0xbe, 0x13, 0xfb, 0xd7, 0x3e, 0x6b, 0x6e, 0x71, 0x3e, 0xb3, 0xec, 0xbb, 0x3e, 0xb0, 0x89, 0x99, 0x3e, 0x6, 0x22, 0x3, 0x3f, 0xc5, 0x17, 0xed, 0x3d, 0xa2, 0x41, 0x90, 0xbe, 0xc, 0xd9, 0x24, 0xbf, 0x73, 0x75, 0xd2, 0xbc, 0x28, 0x28, 0xdf, 0x3d, 0x4a, 0xe4, 0xc5, 0x3d, 0x63, 0xd1, 0xb0, 0x3a, 0xb8, 0x9, 0xd1, 0xbd, 0x28, 0x2e, 0xb7, 0xbe, 0x3b, 0x1b, 0x90, 0xbd, 0x87, 0x2d, 0xae, 0xbe, 0x91, 0x24, 0x84, 0xbe, 0xe8, 0x27, 0x4d, 0x3e, 0xb7, 0x5a, 0x3a, 0xbe, 0x7b, 0x7c, 0xcb, 0xbd, 0xc7, 0xb0, 0xa8, 0x3e, 0xdd, 0xcd, 0x36, 0xbe, 0x9a, 0x88, 0x3f, 0x3e, 0xec, 0x91, 0xee, 0xbd, 0xee, 0x3a, 0x53, 0xbf, 0x1e, 0x8a, 0x2e, 0xbd, 0xd2, 0xe5, 0xef, 0x3e, 0xc9, 0xe7, 0xb, 0xbf, 0xca, 0xf, 0x7e, 0xbd, 0x13, 0xe8, 0x3a, 0xbe, 0x53, 0x5b, 0x47, 0x3e, 0xee, 0xb4, 0x5, 0xbf, 0x1e, 0xe4, 0xb7, 0xbc, 0xa, 0xf5, 0x1, 0x3f, 0x20, 0xf9, 0xc4, 0x3e, 0x88, 0x57, 0xb9, 0xbe, 0x75, 0x70, 0xe6, 0xbe, 0xf4, 0xce, 0x15, 0x3f, 0x2, 0x15, 0xa, 0xbd, 0x64, 0x21, 0xb4, 0xbd, 0x64, 0x25, 0xc7, 0x3e, 0xd5, 0xb0, 0x7c, 0xbe, 0xa, 0xd5, 0x15, 0xbe, 0x2d, 0xe0, 0x70, 0x3e, 0x93, 0x15, 0x9, 0xbf, 0x41, 0xbf, 0x83, 0xbe, 0x3b, 0xbe, 0xa2, 0x3e, 0xe6, 0x2c, 0xeb, 0x3e, 0x5d, 0x65, 0x1c, 0xbf, 0x75, 0x7c, 0x29, 0x3e, 0xf4, 0xba, 0x95, 0xbe, 0xda, 0x55, 0xe8, 0xbe, 0x45, 0xe9, 0xf9, 0x3e, 0xe9, 0x85, 0xc0, 0x3e, 0x4f, 0x3b, 0x6, 0x3e, 0x47, 0x74, 0x25, 0xbf, 0x84, 0xd0, 0x60, 0xbd, 0xbb, 0xbb, 0x1f, 0x3e, 0x23, 0x60, 0x6a, 0x3e, 0xb7, 0x39, 0x3, 0x3e, 0x35, 0x11, 0x14, 0xbf, 0x3b, 0xfb, 0x92, 0xbc, 0xd3, 0x8b, 0x58, 0x3e, 0x32, 0x44, 0xf2, 0xbe, 0x97, 0xb7, 0x94, 0x3e, 0x2d, 0xd1, 0x81, 0xbe, 0x7b, 0xe8, 0x2d, 0xbe, 0x32, 0xfc, 0xcc, 0x3e, 0xbf, 0x71, 0x88, 0x3d, 0x50, 0x62, 0xb6, 0xbd, 0xb3, 0xdc, 0xac, 0x3e, 0x29, 0x54, 0x8b, 0x3e, 0x6d, 0x1b, 0xb0, 0x3e, 0x62, 0x72, 0xde, 0xbe, 0x13, 0x51, 0xc, 0xb9, 0xaa, 0x3e, 0x8f, 0xbd, 0xe2, 0xdb, 0x8d, 0x3e, 0x30, 0x1e, 0x8, 0xbf, 0x9, 0xfe, 0x93, 0xbe, 0x10, 0xa5, 0x6e, 0xbe, 0x49, 0xd4, 0xb7, 0xbe, 0x44, 0x25, 0xdb, 0xbc, 0xfc, 0x2b, 0x2a, 0xbd, 0xcf, 0xb2, 0x97, 0x3d, 0xc1, 0x83, 0x48, 0x3d, 0xcd, 0x30, 0xa3, 0xbd, 0x4b, 0x33, 0x2, 0xbd, 0x71, 0xd6, 0x5e, 0x3e, 0x21, 0xd6, 0x64, 0xbe, 0xb4, 0x39, 0x43, 0x3e, 0xe9, 0x5d, 0xe2, 0xbd, 0x72, 0x7b, 0xec, 0xbb, 0x1, 0x74, 0x98, 0x3e, 0xbb, 0x8d, 0x14, 0x3e, 0xc6, 0x50, 0x65, 0xbe, 0xce, 0xdd, 0xb1, 0xbe, 0xdf, 0xbd, 0xad, 0x3e, 0xcc, 0x72, 0xa8, 0xba, 0x5c, 0x5a, 0x52, 0xbe, 0x19, 0x14, 0x37, 0xbe, 0xc0, 0xde, 0x5, 0xbe, 0x48, 0x1f, 0xa2, 0xbc, 0x7e, 0x28, 0x31, 0x3d, 0x8e, 0xc0, 0xab, 0xbe, 0x5f, 0x66, 0x9f, 0xbe, 0x12, 0x30, 0x41, 0xbf, 0x2b, 0xe0, 0x8b, 0xbe, 0x92, 0x1b, 0x96, 0x3e, 0x8c, 0x8b, 0x44, 0xbe, 0xa1, 0xef, 0xe1, 0xbe, 0x46, 0x43, 0x69, 0xbe, 0x29, 0xa7, 0xc8, 0xbe, 0x9, 0xc4, 0xe1, 0xbe, 0x5b, 0x9f, 0xc6, 0x3e, 0xaf, 0xf6, 0x59, 0xbe, 0xb9, 0x45, 0xcd, 0xbd, 0x1b, 0x5b, 0x83, 0xbe, 0x86, 0x56, 0x9c, 0xbe, 0x6d, 0x57, 0x1b, 0xbe, 0x17, 0x8, 0x0, 0xbf, 0xbd, 0xf7, 0x18, 0x3f, 0x5a, 0xba, 0x84, 0xbe, 0x19, 0x52, 0xce, 0x3e, 0x3b, 0x7f, 0x89, 0x3e, 0x7, 0x5c, 0x2, 0xbf, 0x2a, 0xdb, 0xb5, 0xbd, 0x2d, 0x2f, 0x54, 0x3c, 0xd4, 0xe2, 0x1, 0xbf, 0xab, 0x99, 0x68, 0x3e, 0x5e, 0x33, 0x74, 0xbe, 0xfe, 0x8, 0xb, 0xbf, 0x1c, 0x8f, 0x3e, 0xbe, 0x9a, 0xb1, 0xb4, 0xbe, 0x85, 0x19, 0xbb, 0x3d, 0xdd, 0xdf, 0x35, 0x3e, 0x9b, 0xe7, 0xa, 0x3f, 0x65, 0x94, 0x2b, 0x3d, 0x86, 0x43, 0xfa, 0xbe, 0x6a, 0xc6, 0xf8, 0x3c, 0xd9, 0x88, 0xd5, 0xbd, 0x16, 0xbd, 0x8b, 0x3e, 0x5d, 0x81, 0xe0, 0x3c, 0xcb, 0xd1, 0x65, 0xbe, 0xa7, 0x77, 0x57, 0xbe, 0xa1, 0x8a, 0xa7, 0x3e, 0xbb, 0xd5, 0xf1, 0xbe, 0xe2, 0x66, 0x22, 0x3e, 0x1c, 0xda, 0x6, 0x3e, 0xe, 0x2f, 0x2, 0x3f, 0xf9, 0x4b, 0x1, 0xbf, 0xfc, 0xa8, 0x3d, 0xbd, 0x2, 0xc8, 0x33, 0xbf, 0x23, 0xe3, 0xc6, 0xbe, 0xe6, 0x1d, 0x27, 0x3e, 0xdb, 0x36, 0x5e, 0xbe, 0x97, 0xb5, 0x35, 0xbe, 0xf8, 0xdc, 0xd4, 0x3e, 0x5, 0x97, 0x7a, 0x3e, 0x6d, 0xcc, 0x6, 0xbe, 0xeb, 0x4f, 0xb3, 0xbd, 0xba, 0xb8, 0x21, 0x3e, 0x8, 0x48, 0x4, 0x3f, 0x4a, 0x27, 0x76, 0xbe, 0x1, 0x8f, 0x38, 0x3f, 0x18, 0xf4, 0xec, 0x3d, 0x65, 0xb6, 0x11, 0xbf, 0xb5, 0xe1, 0x52, 0xbe, 0x5e, 0xe4, 0x9d, 0xbe, 0x1f, 0x81, 0x8c, 0x3e, 0x92, 0xf7, 0x63, 0xbe, 0x50, 0xcf, 0x97, 0xbd, 0xa9, 0x85, 0x1, 0x3f, 0x64, 0x21, 0x6f, 0xbe, 0xd, 0xc8, 0x80, 0xbc, 0x86, 0x98, 0x1a, 0xbe, 0xb5, 0x1b, 0xef, 0xbe, 0x50, 0xc9, 0x5f, 0x3d, 0xc, 0x8b, 0x95, 0xbe, 0x79, 0x5c, 0x4, 0x3e, 0xf2, 0xa5, 0x79, 0x3e, 0xdd, 0x8e, 0x73, 0x3e, 0x55, 0x69, 0xe6, 0x3e, 0x98, 0xac, 0xac, 0x3e, 0xe7, 0xa0, 0x9d, 0x3e, 0xf6, 0xf3, 0x21, 0xbe, 0xbd, 0xd0, 0x38, 0x3e, 0x4, 0xd4, 0xd8, 0xbe, 0xae, 0xc9, 0x86, 0xbe, 0x8c, 0x4a, 0x7c, 0x3e, 0x24, 0xf1, 0x80, 0xbe, 0x6d, 0x55, 0x95, 0xbe, 0xe6, 0x68, 0xf1, 0x3e, 0x1d, 0xef, 0xa1, 0x3e, 0x9f, 0xed, 0x25, 0x3e, 0x88, 0x5c, 0xba, 0x3e, 0xd1, 0x48, 0x1, 0xbd, 0xc0, 0x1, 0xf3, 0xbe, 0x3c, 0x3, 0x67, 0x3e, 0xdc, 0x51, 0xd2, 0xbc, 0xf9, 0xab, 0x50, 0x3e, 0x58, 0x34, 0x40, 0x3e, 0x4f, 0x46, 0x15, 0x3e, 0xf4, 0xa9, 0xd6, 0xbe, 0x94, 0x9f, 0xa5, 0xbd, 0xe8, 0xe1, 0x90, 0xbd, 0x87, 0x15, 0x88, 0x3e, 0xaa, 0x27, 0xa6, 0xbe, 0x93, 0xa, 0x2f, 0xbe, 0x1f, 0x53, 0x55, 0xbe, 0x98, 0x2d, 0xb1, 0xbd, 0x2f, 0xdf, 0x2, 0xbe, 0xc5, 0x13, 0xca, 0x3e, 0x4c, 0x27, 0xd6, 0x3d, 0x72, 0xf1, 0xe, 0xbe, 0xc9, 0xd8, 0x82, 0xbd, 0xba, 0xc7, 0xf, 0x3e, 0x9a, 0x67, 0x25, 0x3e, 0x2f, 0x5f, 0x6, 0xbe, 0x3e, 0x1a, 0x82, 0xbe, 0x84, 0x57, 0xab, 0x3d, 0x2c, 0xf9, 0xa, 0xbd, 0xcb, 0xd6, 0x4, 0xbe, 0x64, 0x6c, 0xa7, 0xbd, 0xaf, 0xc2, 0x50, 0x3e, 0xb9, 0x5b, 0xaf, 0xbd, 0x9b, 0x55, 0x3d, 0xbd, 0xaf, 0x5e, 0x88, 0x3d, 0xac, 0x84, 0xa, 0xbe, 0x2c, 0xeb, 0x9b, 0x3c, 0xe5, 0xb7, 0x12, 0xbd, 0x56, 0x9e, 0x45, 0x3e, 0x15, 0x63, 0xba, 0x3d, 0x34, 0x62, 0xad, 0xbe, 0xd5, 0xff, 0xe8, 0xbd, 0x5, 0x87, 0xbb, 0x3d, 0x95, 0x44, 0x75, 0xbd, 0x4a, 0x90, 0x0, 0xbe, 0x20, 0x4c, 0xde, 0xbe, 0x8, 0xdd, 0x9f, 0x3e, 0x1e, 0xeb, 0x81, 0x3d, 0x91, 0xe5, 0x11, 0x3e, 0x37, 0xe5, 0x39, 0x3e, 0x3e, 0xca, 0x93, 0x3e, 0x1f, 0x38, 0xac, 0xbe, 0xef, 0x94, 0x97, 0xbe, 0xd0, 0x26, 0x84, 0x3e, 0x1d, 0x5c, 0xd3, 0x3c, 0x18, 0x7c, 0x33, 0x3e, 0x1a, 0x11, 0xdc, 0xbc, 0x28, 0xaa, 0x6c, 0xbe, 0xb3, 0x36, 0xb1, 0xbe, 0x90, 0xed, 0x79, 0xbe, 0x71, 0x53, 0x48, 0xbe, 0x2d, 0x30, 0x31, 0xbe, 0x9e, 0x31, 0xc9, 0x3b, 0xa3, 0xf2, 0xa3, 0x3e, 0x1c, 0xf5, 0x42, 0xbe, 0xa4, 0x3c, 0xf1, 0xbd, 0x4f, 0xce, 0xca, 0xbd, 0xb4, 0xa4, 0x4e, 0x3d, 0xc2, 0xa7, 0x8a, 0xbd, 0xea, 0x2b, 0xe5, 0x3c, 0xdd, 0xbc, 0x24, 0x3e, 0x85, 0x5c, 0x40, 0x3d, 0xf3, 0x3a, 0xef, 0xbd, 0x53, 0x4a, 0x83, 0x3b, 0x4d, 0xfd, 0x27, 0x3e, 0xd, 0x39, 0x6d, 0xbd, 0xa, 0x8f, 0x4f, 0xbe, 0x5a, 0x42, 0xff, 0xbd, 0xeb, 0x1f, 0xc5, 0x3d, 0x1b, 0xcc, 0xa, 0x3e, 0x3e, 0xfe, 0x3d, 0xbe, 0x5f, 0x2f, 0xc1, 0xbd, 0x28, 0x65, 0x2e, 0x3e, 0x4f, 0x6a, 0x81, 0x3e, 0x5a, 0x36, 0x9f, 0xbe, 0x2c, 0x91, 0xa3, 0x3e, 0x6, 0xae, 0x4, 0x3e, 0xe, 0xf5, 0xcd, 0x3d, 0x87, 0x79, 0x98, 0x3d, 0xbf, 0x12, 0xe5, 0xbd, 0xdf, 0x3a, 0xd1, 0xbe, 0xa4, 0xad, 0x13, 0x3d, 0x7, 0x38, 0x80, 0x3e, 0x41, 0x34, 0xcc, 0x3d, 0x96, 0xa3, 0x13, 0xbd, 0x7b, 0x68, 0x79, 0xbe, 0xf6, 0x1d, 0xab, 0x3d, 0xb0, 0x53, 0x24, 0xbe, 0x31, 0x84, 0xfc, 0xbd, 0x23, 0x13, 0x86, 0xbe, 0xc0, 0xd3, 0xb9, 0xbe, 0x8, 0xbe, 0x86, 0x3e, 0x5e, 0x83, 0xd9, 0xbc, 0xef, 0x1c, 0xd1, 0x3d, 0xd2, 0x4f, 0x36, 0x3f, 0x8a, 0x4f, 0x4, 0x3e, 0xc7, 0xac, 0xd3, 0x3d, 0xd4, 0x7e, 0x33, 0x3e, 0xed, 0x27, 0xfc, 0xbd, 0x75, 0xd2, 0xca, 0x3b, 0x53, 0xae, 0xa9, 0x3e, 0x30, 0x9b, 0x1f, 0x3e, 0xb6, 0x7, 0x3f, 0x3e, 0xd1, 0xde, 0xb4, 0x3d, 0xc4, 0xde, 0xde, 0x3e, 0x87, 0x59, 0x46, 0x3e, 0x7f, 0x81, 0xd8, 0x3d, 0x8e, 0xc7, 0xfa, 0x3d, 0x1e, 0x1e, 0x5f, 0x3e, 0x5a, 0x50, 0x25, 0xbe, 0x62, 0x7, 0xe1, 0xbc, 0x21, 0x5b, 0x1e, 0x3f, 0x5c, 0xfe, 0x5d, 0xbd, 0xd7, 0x6f, 0x7b, 0xbe, 0x7d, 0x5b, 0x43, 0x3e, 0x30, 0xf2, 0x7b, 0x3e, 0x6f, 0x80, 0x55, 0xbd, 0x34, 0x51, 0xec, 0x3d, 0xbb, 0xc0, 0xb5, 0xbd, 0xc5, 0xbf, 0x87, 0x3e, 0x90, 0x68, 0x9f, 0xbc, 0x26, 0x7e, 0x19, 0xbd, 0x37, 0x9d, 0x7, 0xbe, 0x1b, 0xb4, 0xc, 0x3e, 0xba, 0xaa, 0xd9, 0xbd, 0x89, 0x34, 0x92, 0x3d, 0xeb, 0x4a, 0x9a, 0xbe, 0x36, 0x3e, 0x1e, 0xbe, 0xc2, 0xf2, 0x71, 0x3d, 0xa3, 0x40, 0x6f, 0xbe, 0x7e, 0x12, 0x39, 0xbe, 0x7d, 0xed, 0x4c, 0xbd, 0x3b, 0xb4, 0x3, 0x3f, 0x9f, 0xb6, 0x7c, 0x3e, 0xc3, 0xd9, 0x51, 0xbc, 0xb1, 0x72, 0x18, 0x3c, 0xb7, 0xf7, 0x45, 0x3e, 0x81, 0xfb, 0x67, 0x3e, 0x54, 0x93, 0x79, 0x3c, 0x95, 0xf, 0x5a, 0xbe, 0x78, 0x5a, 0xd, 0x3d, 0xcd, 0x8d, 0xa7, 0xbe, 0xfb, 0xb0, 0x8e, 0x3d, 0xc0, 0x2c, 0xb2, 0xbd, 0xf0, 0x69, 0x25, 0x3d, 0xf2, 0xdd, 0xd0, 0x3e, 0xe7, 0xd0, 0x1, 0xbd, 0xcf, 0xb4, 0x65, 0x3d, 0xb7, 0xbc, 0xb8, 0xbe, 0xaf, 0xe6, 0xe7, 0xbe, 0xeb, 0x7f, 0x31, 0x3e, 0xed, 0x6c, 0xba, 0xbe, 0x8, 0x79, 0xe7, 0xbd, 0x2, 0x59, 0xa7, 0x3e, 0xe3, 0xf2, 0xf, 0x3e, 0xb4, 0xd0, 0x4c, 0xbe, 0xd7, 0x91, 0xa7, 0x3e, 0xaa, 0xdf, 0x82, 0x3d, 0xc7, 0x7c, 0xc3, 0xbe, 0x9d, 0x64, 0x85, 0x3d, 0xfc, 0xcd, 0x3e, 0xbe, 0x3d, 0xc4, 0xe5, 0xbc, 0x93, 0x55, 0x3b, 0x3f, 0xce, 0x35, 0xa, 0xbd, 0x2e, 0xc2, 0x9, 0xbe, 0x5, 0xe, 0x72, 0xbd, 0xd8, 0x9c, 0xaa, 0x3e, 0x2b, 0x8e, 0x8a, 0x3e, 0x88, 0xed, 0xf4, 0x3e, 0xe0, 0x8a, 0xfd, 0x3d, 0x9, 0x3a, 0xac, 0x3d, 0x35, 0x67, 0xe1, 0x3d, 0x28, 0x67, 0xdb, 0x3d, 0xce, 0x16, 0xd, 0xbe, 0xcf, 0x84, 0x20, 0x3d, 0xd2, 0x9f, 0x9, 0x3f, 0xd0, 0x68, 0xa5, 0x3d, 0xca, 0x1a, 0x4b, 0x3e, 0x64, 0x60, 0xa0, 0xbc, 0xcb, 0x53, 0xb6, 0x3e, 0x71, 0x3d, 0x3f, 0xbe, 0xb1, 0x1d, 0x54, 0x3c, 0x4c, 0x6f, 0x7c, 0x3e, 0x7b, 0x96, 0x9b, 0x3e, 0x66, 0xb7, 0x1b, 0x3c, 0x82, 0xec, 0xc7, 0xbe, 0x23, 0xfe, 0xce, 0x3d, 0x28, 0x60, 0x44, 0x3e, 0xef, 0x47, 0x19, 0xbf, 0x3d, 0xba, 0xb4, 0x3c, 0xe1, 0xa6, 0xed, 0xbd, 0x53, 0xa8, 0xf9, 0x3e, 0x12, 0x51, 0xe, 0x3e, 0x6f, 0x32, 0xac, 0xbd, 0x1a, 0x8e, 0x57, 0xbe, 0x7e, 0x85, 0x17, 0x3e, 0xe4, 0x18, 0x5, 0x3f, 0x48, 0xb2, 0xc, 0xbe, 0xbd, 0x46, 0x80, 0x3c, 0xec, 0xf9, 0x25, 0x3e, 0x74, 0xce, 0x92, 0x3d, 0x6b, 0xdc, 0x48, 0x3e, 0x9e, 0xe, 0xb0, 0xbd, 0x50, 0xd5, 0xb9, 0xbd, 0xc8, 0xdb, 0x9e, 0x3e, 0x23, 0x1e, 0x18, 0x3e, 0x8b, 0x8a, 0x7d, 0x3e, 0x6a, 0xff, 0x35, 0xbe, 0x14, 0xa4, 0x2d, 0xbe, 0xa0, 0x18, 0xb9, 0xbe, 0x2b, 0x60, 0x2, 0x3d, 0x78, 0x1f, 0x8e, 0xbd, 0x7e, 0x75, 0xc4, 0xbd, 0x92, 0x66, 0x23, 0x3f, 0x1e, 0xbc, 0x7, 0xbf, 0x9d, 0x8b, 0x90, 0x3e, 0x55, 0x40, 0xf3, 0xbc, 0xb3, 0xc, 0x84, 0xbe, 0xd, 0x42, 0x31, 0x3d, 0x22, 0xe4, 0x9e, 0xbc, 0xcb, 0x12, 0xa9, 0xbd, 0x56, 0x9c, 0xd, 0xbe, 0x4a, 0x86, 0xdc, 0xbd, 0xae, 0xe6, 0x95, 0x3e, 0x13, 0x88, 0x88, 0xbb, 0xef, 0x2a, 0x93, 0xbd, 0xc9, 0xe0, 0x22, 0x3d, 0x5b, 0xa0, 0x4d, 0x3e, 0xd, 0x4b, 0x82, 0xbe, 0x72, 0x6f, 0x33, 0xbf, 0x6c, 0xa0, 0x40, 0x3f, 0xd2, 0x99, 0x8c, 0xbd, 0x97, 0x3e, 0x5, 0x3e, 0x4d, 0xd, 0x9c, 0xbe, 0x66, 0x7f, 0xe3, 0xbd, 0x73, 0x96, 0xc2, 0x3e, 0x95, 0x35, 0xb, 0xbd, 0x21, 0x95, 0x44, 0xbd, 0xae, 0xd4, 0x1e, 0x3d, 0x45, 0x81, 0xe, 0xbe, 0x82, 0xea, 0x36, 0x3d, 0xf5, 0x40, 0x99, 0xbe, 0x49, 0x48, 0x76, 0xbe, 0x40, 0x68, 0x50, 0xbd, 0x47, 0x84, 0x36, 0x3f, 0x6f, 0x93, 0xc6, 0x3d, 0x5f, 0xa7, 0x14, 0xbe, 0x31, 0x53, 0xe3, 0x3d, 0x4c, 0xe, 0x56, 0xbe, 0xd6, 0x6b, 0x34, 0x3e, 0x66, 0x28, 0xeb, 0xbe, 0x94, 0x61, 0x80, 0x3f, 0xdd, 0xd, 0xf7, 0x3e, 0xb, 0x46, 0xe6, 0x3e, 0xd, 0xea, 0x14, 0x3e, 0x7, 0xa7, 0xe9, 0x3e, 0x4f, 0x44, 0xd9, 0xbd, 0xe5, 0x11, 0x39, 0xbe, 0xfb, 0x9f, 0xd1, 0xbe, 0x91, 0xe6, 0x31, 0x3e, 0xf5, 0xcb, 0xe1, 0x3e, 0xe7, 0x15, 0x8b, 0xbc, 0x26, 0xcf, 0x34, 0x3d, 0x60, 0xdc, 0x27, 0x3e, 0xbe, 0xd9, 0x7f, 0xbd, 0xd8, 0x10, 0x2e, 0x3f, 0xeb, 0xa6, 0x9d, 0xbd, 0xbf, 0x3d, 0xd2, 0x3e, 0x3d, 0xc1, 0xd6, 0xbe, 0xf8, 0xb0, 0xa8, 0xbd, 0x6a, 0x76, 0xcd, 0xbc, 0xfd, 0xb7, 0x22, 0xbe, 0x51, 0x88, 0x9c, 0x3c, 0x3a, 0xef, 0x73, 0xbe, 0x28, 0x75, 0xfa, 0xbd, 0xa7, 0xdf, 0x1e, 0xbe, 0x10, 0xab, 0x88, 0x3e, 0x45, 0x14, 0xd0, 0xbe, 0xae, 0xa1, 0x7a, 0x3c, 0x39, 0xa2, 0x14, 0xbd, 0xb2, 0x6e, 0xad, 0x3e, 0xc9, 0x36, 0x11, 0x3e, 0x51, 0x7, 0x8c, 0x3c, 0xf4, 0xb4, 0x28, 0x3d, 0xe3, 0x5d, 0x9c, 0x3e, 0xbd, 0x1, 0x9b, 0xbe, 0xe7, 0xd7, 0x41, 0x3d, 0x64, 0xd, 0x9e, 0x3d, 0xf2, 0xda, 0xfc, 0xbe, 0x7b, 0x89, 0x8c, 0x3b, 0xfe, 0x54, 0xe1, 0xbd, 0x10, 0x6e, 0xb4, 0x3c, 0x24, 0xc8, 0xca, 0xbe, 0x4b, 0x78, 0x2d, 0x3f, 0x14, 0x87, 0xf2, 0xbe, 0xcd, 0x38, 0xda, 0xbc, 0xfe, 0xd1, 0x72, 0x3e, 0x15, 0xe3, 0x99, 0xbe, 0x30, 0xe9, 0x89, 0x3e, 0xed, 0xbf, 0xde, 0xbe, 0x2e, 0xc6, 0xae, 0x3e, 0x6a, 0x8a, 0x25, 0xbf, 0xb9, 0x6, 0xd, 0xbf, 0x75, 0xd0, 0xb6, 0x3e, 0x4e, 0xb5, 0x77, 0xbe, 0xcb, 0xef, 0x7b, 0x3e, 0xc8, 0xaa, 0x99, 0x3d, 0x9d, 0xb8, 0x32, 0x3f, 0x70, 0xb6, 0xc2, 0xbe, 0x17, 0x25, 0x42, 0xbf, 0x4d, 0xbe, 0x12, 0x3f, 0xd9, 0x3e, 0x3, 0x3f, 0xb0, 0xc, 0x2a, 0x3d, 0x8a, 0x15, 0x0, 0x3f, 0x27, 0x53, 0x21, 0x3f, 0xeb, 0xe0, 0xb8, 0x3d, 0xf9, 0xf9, 0x8a, 0xbe, 0xd1, 0x42, 0xc, 0xbe, 0x2b, 0x78, 0x37, 0xbc, 0xda, 0xe1, 0x82, 0xbe, 0x36, 0xc3, 0x81, 0xbd, 0x35, 0xa5, 0xe1, 0xbc, 0x55, 0x1d, 0x0, 0xbf, 0xce, 0xb4, 0x22, 0xbe, 0x90, 0x48, 0xb3, 0x3d, 0x21, 0x24, 0x92, 0xbe, 0x4c, 0x40, 0xab, 0xbe, 0xb8, 0x66, 0x51, 0x3d, 0x99, 0xf3, 0x1, 0xbd, 0x3a, 0x91, 0x60, 0xbd, 0x44, 0xb3, 0x48, 0x3f, 0xe0, 0x9e, 0x38, 0xbe, 0xe5, 0x80, 0xfe, 0x3d, 0xf9, 0xb0, 0x19, 0xbe, 0x49, 0xbf, 0x41, 0xbf, 0x5f, 0x48, 0x45, 0x3e, 0xe4, 0x5c, 0x6, 0x3f, 0x16, 0x3, 0x79, 0x3e, 0x12, 0x5, 0x77, 0xbe, 0x49, 0xd9, 0xa, 0xbe, 0xca, 0x13, 0x76, 0x3e, 0xff, 0xf7, 0xc, 0xbf, 0x0, 0xaf, 0xbe, 0x3b, 0x2a, 0x7a, 0xee, 0x3e, 0x38, 0xb3, 0xd8, 0x3e, 0xeb, 0x93, 0xa0, 0x3d, 0x19, 0x5f, 0x5a, 0xbe, 0x3c, 0xbc, 0xb0, 0x3e, 0xf0, 0x98, 0x2c, 0xbe, 0x62, 0x24, 0x7, 0xbf, 0xbb, 0x7c, 0xae, 0x3d, 0x5a, 0xc0, 0x28, 0xbe, 0x94, 0x8a, 0xf2, 0xbe, 0xa0, 0x31, 0xad, 0xbb, 0x77, 0xe4, 0xaf, 0xbe, 0xd8, 0x16, 0x1a, 0xbe, 0x64, 0xa5, 0x27, 0x3d, 0xa7, 0x91, 0xc3, 0x3e, 0xc8, 0x41, 0x25, 0xbe, 0x1c, 0x23, 0xf7, 0x3b, 0x2c, 0x77, 0x98, 0x3d, 0xc, 0x3, 0xcd, 0xbd, 0x53, 0x3b, 0xa7, 0x3d, 0xf3, 0x1a, 0x12, 0x3f, 0x31, 0x22, 0x22, 0x3d, 0xe8, 0x9b, 0x74, 0xbd, 0xf2, 0xca, 0x48, 0xbe, 0x9c, 0xee, 0x99, 0x3d, 0xd7, 0x54, 0xe6, 0x3d, 0x23, 0x63, 0xf, 0x3d, 0xc3, 0x21, 0x23, 0xbe, 0xcb, 0x2e, 0x1e, 0x3e, 0x51, 0x65, 0x92, 0x3d, 0x45, 0x66, 0xe5, 0xbe, 0xe5, 0xb4, 0xbe, 0x3e, 0xca, 0x40, 0x18, 0xbe, 0x5a, 0xb, 0x70, 0xbe, 0x51, 0xa4, 0x3c, 0x3e, 0x63, 0xac, 0x88, 0xbe, 0xc3, 0x67, 0xeb, 0xbd, 0x54, 0x4d, 0xc6, 0x3e, 0xa8, 0x45, 0x57, 0x3e, 0x95, 0x2c, 0xf3, 0x3e, 0x39, 0x6f, 0x24, 0xbf, 0x48, 0x9e, 0x2c, 0xbe, 0x42, 0x7e, 0x2c, 0xbe, 0xe3, 0xbe, 0xef, 0x3d, 0x2f, 0x33, 0x8d, 0xbe, 0x4, 0xb5, 0x86, 0xbe, 0x6, 0x3f, 0x97, 0xbe, 0x99, 0x22, 0x2c, 0x3e, 0x20, 0x1c, 0x54, 0xbe, 0x4a, 0xd8, 0x75, 0x3e, 0x24, 0xe6, 0xb9, 0x3d, 0xf, 0xa6, 0xaa, 0x3d, 0x7e, 0x78, 0x40, 0x3c, 0xd7, 0x22, 0xf6, 0x3d, 0x1b, 0x15, 0x10, 0x3e, 0x7a, 0x2c, 0x2, 0x3e, 0x0, 0xf5, 0xd2, 0x3e, 0xa1, 0xd7, 0x1a, 0x3c, 0xc3, 0x71, 0x8f, 0x3d, 0xb1, 0xf5, 0xa1, 0x3d, 0xe1, 0xad, 0xac, 0x3d, 0xa9, 0xb3, 0xf4, 0xbe, 0xb, 0x6a, 0x88, 0x3c, 0xa9, 0xa2, 0xfa, 0x3e, 0x99, 0x12, 0x88, 0x3c, 0x29, 0x30, 0xa4, 0xbe, 0xec, 0xd7, 0x5f, 0xbe, 0xbe, 0x50, 0x68, 0x3d, 0x9f, 0x22, 0x55, 0x3d, 0xf5, 0xc5, 0x89, 0x3e, 0xc9, 0xd2, 0x53, 0x3b, 0x4f, 0x81, 0xcd, 0xbe, 0x0, 0x68, 0x10, 0xbf, 0x8f, 0x80, 0xc2, 0xbd, 0xe, 0x92, 0x32, 0x3e, 0xbb, 0x6, 0x86, 0x3e, 0xac, 0x8f, 0xb9, 0xbe, 0x2d, 0x4, 0xb9, 0x3d, 0xdb, 0xa9, 0xea, 0xbe, 0x18, 0x9b, 0x5a, 0x3e, 0x4c, 0x16, 0xaa, 0x3d, 0x8e, 0x4, 0x56, 0xbe, 0xce, 0xd8, 0xdf, 0xbe, 0xd9, 0x34, 0xfa, 0x3e, 0x7c, 0x4c, 0x1b, 0x3e, 0x61, 0xf7, 0x15, 0x3f, 0x12, 0x5f, 0x3b, 0xbd, 0x54, 0xda, 0xca, 0xbe, 0x73, 0xa0, 0x22, 0x3f, 0x2e, 0x18, 0xc9, 0x3e, 0x86, 0x4, 0x74, 0x3e, 0xbb, 0xa4, 0x96, 0xbe, 0xd7, 0x2a, 0x33, 0x3e, 0x9c, 0xb4, 0x3a, 0x3e, 0x2e, 0xdf, 0xb9, 0xbe, 0x5f, 0x1c, 0x96, 0x3e, 0xd0, 0x40, 0xee, 0x3e, 0x1e, 0x14, 0x52, 0xbf, 0x37, 0xed, 0x2a, 0x3e, 0x2, 0x5f, 0xed, 0x3d, 0x2d, 0x25, 0x2, 0xbe, 0x51, 0x15, 0x4b, 0x3e, 0x9a, 0x5d, 0xcc, 0x3e, 0x95, 0xde, 0xa8, 0xbd, 0x8e, 0x3b, 0x9a, 0xbe, 0x20, 0x16, 0x97, 0xbe, 0xa2, 0x6e, 0x14, 0xbe, 0x44, 0x73, 0x1f, 0x3e, 0x36, 0x89, 0x83, 0xbe, 0xad, 0xc1, 0x82, 0xbe, 0x8b, 0x1d, 0x6d, 0xbe, 0xcd, 0x4, 0xf2, 0x3e, 0x28, 0xa5, 0x39, 0xbf, 0x62, 0x12, 0x8d, 0x3d, 0x66, 0xc9, 0x3a, 0x3f, 0x20, 0x61, 0x39, 0x3f, 0x2c, 0xf8, 0x31, 0xbf, 0xe0, 0x77, 0x1a, 0x3e, 0x42, 0x1a, 0xeb, 0xbe, 0x79, 0x2d, 0x98, 0xbe, 0x4b, 0x23, 0x17, 0x3f, 0x29, 0x46, 0x40, 0x3d, 0x86, 0x31, 0xb2, 0xbd, 0xf9, 0xe8, 0x1, 0x3f, 0xd8, 0x66, 0xb, 0x3f, 0x85, 0x6d, 0xc2, 0xbe, 0x7f, 0x88, 0x91, 0x3d, 0x7b, 0x89, 0x2c, 0x3e, 0xc8, 0x1f, 0xe1, 0x3e, 0xbb, 0xbe, 0xde, 0xbe, 0xb0, 0x4, 0xd5, 0x3e, 0x53, 0x2f, 0xad, 0x3e, 0x8d, 0x2e, 0x92, 0xbf, 0x8a, 0x4e, 0xda, 0x3e, 0x2, 0x8e, 0x1d, 0xbe, 0x66, 0x13, 0xc2, 0xbe, 0x2d, 0xb9, 0x5b, 0x3c, 0x6e, 0xa7, 0x27, 0x3e, 0xca, 0x8f, 0xea, 0x3e, 0x6, 0xdc, 0x5, 0x3e, 0xc4, 0xe7, 0x98, 0x3d, 0x55, 0xea, 0xa7, 0xbe, 0x20, 0x7d, 0xd3, 0xbe, 0x42, 0x1a, 0x58, 0x3e, 0x7f, 0x15, 0xc, 0xbe, 0x7c, 0xa3, 0xb4, 0xbe, 0xb3, 0xc, 0x1c, 0x3d, 0xa9, 0x70, 0xa5, 0xbd, 0x82, 0x9b, 0xee, 0x3d, 0xa9, 0x3c, 0xc5, 0x3e, 0x3b, 0xe9, 0x9a, 0x3e, 0x85, 0xcf, 0x7c, 0xbe, 0x92, 0xa6, 0x87, 0xbd, 0x76, 0xd1, 0xab, 0xbe, 0x8c, 0x4e, 0x99, 0xbd, 0x85, 0x61, 0x57, 0xbe, 0xac, 0xc5, 0x92, 0x3d, 0xb8, 0xc5, 0x43, 0xbe, 0x10, 0x50, 0x81, 0x3e, 0x3c, 0x2, 0x83, 0x3e, 0x58, 0xf9, 0xa, 0x3d, 0x86, 0xe9, 0xff, 0xff, 0x4, 0x0, 0x0, 0x0, 0x0, 0x8, 0x0, 0x0, 0x6, 0x27, 0xa3, 0x3e, 0x57, 0xc6, 0xcb, 0x3d, 0x70, 0x9c, 0x98, 0x3e, 0xb1, 0x8b, 0x52, 0x3d, 0x8b, 0x75, 0x8f, 0x3e, 0xfa, 0x4e, 0x15, 0xbe, 0x16, 0xa4, 0x59, 0x3b, 0xe3, 0xaa, 0xea, 0xbc, 0x58, 0x9e, 0xbf, 0x3d, 0xa3, 0x4f, 0x17, 0x3d, 0x61, 0xd7, 0xee, 0xbd, 0x6c, 0xf6, 0x27, 0x3c, 0xfc, 0x61, 0x1c, 0x3e, 0x74, 0x1, 0xc, 0xbe, 0xce, 0x28, 0x43, 0x3c, 0xeb, 0x80, 0x8a, 0x3d, 0x36, 0x5b, 0x1c, 0x3d, 0x8a, 0xf9, 0x97, 0x3d, 0xbb, 0x3a, 0xfe, 0x3d, 0x7, 0xbf, 0xe8, 0xbc, 0xd0, 0x53, 0xf5, 0x3d, 0xc5, 0x93, 0x39, 0x3e, 0x8e, 0x19, 0x15, 0x3d, 0xd6, 0x21, 0xc0, 0xbd, 0x2b, 0xc4, 0x71, 0xbd, 0x7a, 0x54, 0x3a, 0x3e, 0x9b, 0x6d, 0x2d, 0xbc, 0x84, 0xba, 0x9b, 0xbc, 0xbb, 0x27, 0x99, 0x3d, 0x3, 0xc0, 0x28, 0x3e, 0xaf, 0xd1, 0x5a, 0xbc, 0x54, 0x12, 0xdb, 0x3d, 0x51, 0x8b, 0xd4, 0x3d, 0x77, 0xb9, 0x9e, 0x3d, 0xb3, 0xf7, 0x1a, 0x3d, 0x51, 0x30, 0x2e, 0xbe, 0x2, 0x90, 0x82, 0x3d, 0x2f, 0x5d, 0x3a, 0xbc, 0x10, 0xd8, 0x36, 0x3c, 0x80, 0xbb, 0x3, 0xbe, 0x65, 0x7e, 0xe3, 0xbb, 0x61, 0x78, 0x0, 0x3e, 0x29, 0x48, 0x3c, 0xbc, 0x45, 0x2f, 0x87, 0xbd, 0x3d, 0x60, 0x58, 0x3c, 0x2a, 0xfb, 0xc2, 0x3b, 0x33, 0x20, 0x9d, 0xba, 0x69, 0x63, 0x54, 0x3d, 0x72, 0xc9, 0x1e, 0x3e, 0x19, 0x53, 0x4, 0x3e, 0xf1, 0x1e, 0x58, 0x3d, 0xf9, 0xe6, 0xb6, 0xbd, 0x0, 0x6c, 0x93, 0xbb, 0x6, 0xe6, 0x40, 0x3e, 0x81, 0x87, 0xff, 0x3c, 0x5a, 0x98, 0xd2, 0x3b, 0x82, 0x51, 0xdb, 0xbc, 0x77, 0xc2, 0x2d, 0x3e, 0x4e, 0x24, 0xfa, 0x3a, 0x1a, 0x5d, 0x48, 0x3d, 0xb8, 0xbd, 0xed, 0xbb, 0xe0, 0xbe, 0xde, 0x3d, 0xa0, 0x8d, 0xa2, 0x3d, 0x69, 0xf0, 0xcd, 0x3d, 0xae, 0x58, 0x2d, 0xb9, 0x8, 0x9d, 0x56, 0x3c, 0x52, 0xc2, 0x33, 0xbd, 0x76, 0x76, 0x64, 0x3d, 0x8d, 0x28, 0x2f, 0x3e, 0xd0, 0xf2, 0xe, 0xbe, 0x12, 0x71, 0x20, 0xbe, 0xee, 0x4d, 0xba, 0xbd, 0xce, 0x60, 0x5e, 0xbe, 0xea, 0x8c, 0x54, 0x3d, 0x5e, 0xc1, 0x91, 0xbd, 0x3a, 0xf2, 0x56, 0x3e, 0xb7, 0xd6, 0x35, 0xbd, 0x54, 0xd2, 0xbb, 0xbd, 0x0, 0x43, 0x13, 0x3e, 0x63, 0xba, 0x51, 0x3e, 0xaf, 0x93, 0x83, 0x3d, 0xc8, 0x3a, 0x1d, 0x3e, 0x8f, 0x7b, 0x3d, 0xbe, 0xe1, 0xcf, 0xb, 0xbe, 0xcd, 0xce, 0x44, 0x3c, 0x42, 0x3f, 0x4e, 0x3e, 0xf3, 0xc2, 0x2a, 0xbe, 0x99, 0x9d, 0x10, 0xbe, 0xfe, 0x8d, 0xa5, 0x3d, 0x77, 0x38, 0xca, 0x3d, 0xbf, 0xe9, 0x9e, 0xbe, 0x9b, 0x1, 0xbc, 0xbd, 0x2e, 0xc7, 0x13, 0xbe, 0xe3, 0xaa, 0x50, 0x3d, 0x73, 0x24, 0x94, 0x3d, 0xbf, 0x9c, 0xf, 0xbd, 0x11, 0x82, 0x4c, 0x3d, 0x52, 0xff, 0x31, 0xbe, 0x1a, 0xdb, 0xf0, 0xbd, 0xd4, 0xd9, 0xbc, 0x3e, 0x97, 0xe5, 0xd9, 0xbd, 0xe1, 0x9b, 0xa3, 0xbe, 0xfa, 0x66, 0xd4, 0xbd, 0xa8, 0x7, 0x23, 0x3e, 0x60, 0xdc, 0x1d, 0xbe, 0xd6, 0xac, 0x86, 0x3e, 0x6, 0xc5, 0x76, 0x3b, 0xd1, 0x46, 0x2f, 0xbe, 0xd9, 0xca, 0x33, 0xbe, 0x6d, 0x82, 0x1, 0x3e, 0x91, 0x36, 0x23, 0x3d, 0xa2, 0x5d, 0x90, 0x3d, 0xa7, 0x7c, 0x12, 0x3c, 0xc0, 0xa0, 0x8b, 0x3a, 0x39, 0xad, 0x91, 0xbd, 0x61, 0x3e, 0x9d, 0xbe, 0xf, 0x6a, 0x5b, 0x3e, 0x49, 0x38, 0xa1, 0x3d, 0x81, 0x80, 0x67, 0x3b, 0x34, 0x1d, 0x47, 0xbd, 0x46, 0xbb, 0x68, 0xbd, 0xf1, 0x5d, 0xd9, 0xbc, 0x40, 0xe0, 0x8b, 0x3e, 0x54, 0xe4, 0x1f, 0x3e, 0xc3, 0xd3, 0xc8, 0x3d, 0xc, 0xf7, 0xa3, 0xbd, 0x30, 0x7c, 0x9e, 0x3b, 0x1c, 0x9c, 0x89, 0x3d, 0xa1, 0x55, 0xc5, 0x3d, 0xda, 0x8a, 0xdc, 0x3d, 0x9b, 0xf, 0x7, 0x3e, 0x6a, 0xda, 0x6d, 0x3c, 0x5c, 0xd9, 0x16, 0x3e, 0xf7, 0x9c, 0x5d, 0xbd, 0x86, 0x28, 0x2, 0x3d, 0x63, 0x4d, 0x70, 0xbc, 0xb7, 0x46, 0x27, 0x3d, 0xa1, 0xb8, 0x7d, 0xbc, 0x84, 0x12, 0x4, 0xbd, 0xbb, 0x26, 0x43, 0xbc, 0xad, 0xf4, 0xbf, 0x3c, 0x87, 0x41, 0x2a, 0xbd, 0x69, 0x4c, 0x91, 0xba, 0x7b, 0x9f, 0xab, 0xba, 0x30, 0xfb, 0xaf, 0x3c, 0xc4, 0x9, 0x77, 0xbc, 0x61, 0x4f, 0x57, 0x3d, 0x7b, 0x15, 0xee, 0xbb, 0x29, 0xf8, 0x23, 0x3c, 0x57, 0xc1, 0xad, 0x3d, 0xeb, 0xa2, 0x69, 0x3c, 0x86, 0xd, 0x5b, 0xbd, 0x3d, 0xe8, 0x92, 0x3c, 0xf1, 0x33, 0xb1, 0x3d, 0xdc, 0x42, 0xde, 0xbc, 0xb9, 0xa0, 0xbd, 0xbb, 0x28, 0x10, 0x13, 0x3d, 0xe8, 0xb6, 0x6b, 0x3d, 0x8, 0xe7, 0xf3, 0xba, 0x67, 0xf9, 0x70, 0x3d, 0x2b, 0xb3, 0x1, 0x3c, 0x55, 0xbd, 0x8d, 0x3d, 0x3e, 0x42, 0xa4, 0xbc, 0x21, 0xd3, 0xa9, 0xbd, 0x39, 0x94, 0x38, 0x3c, 0x83, 0x88, 0xc0, 0x3c, 0xc0, 0x4e, 0xc3, 0x3c, 0xe4, 0x42, 0x37, 0xbd, 0x8c, 0x1a, 0x7e, 0xba, 0x6c, 0x6b, 0xbe, 0x3c, 0x54, 0x94, 0x3, 0xba, 0xb1, 0x86, 0x68, 0xbc, 0xdf, 0x5a, 0x66, 0xbc, 0xa9, 0x35, 0xa0, 0xbc, 0xac, 0x4b, 0x94, 0xbc, 0x2e, 0x6a, 0x9, 0x3d, 0x27, 0x86, 0xdd, 0x3d, 0xbd, 0xb2, 0xc, 0xbc, 0x27, 0x11, 0x84, 0x3d, 0x5d, 0x9c, 0xb5, 0xbc, 0x3c, 0x5e, 0x39, 0xbd, 0x7f, 0x99, 0x79, 0x3d, 0xde, 0x42, 0x31, 0x3d, 0x97, 0x11, 0xa, 0x3b, 0xe0, 0xbe, 0x4b, 0xbd, 0x17, 0x51, 0x9c, 0x3c, 0x8b, 0x19, 0x6, 0x3c, 0xac, 0x54, 0x95, 0x3d, 0xe7, 0x10, 0x1, 0xbd, 0xb2, 0x57, 0x78, 0x3c, 0x7f, 0xd3, 0x4, 0x3c, 0x5b, 0x4c, 0x49, 0x3d, 0xe, 0x99, 0x83, 0x3c, 0x5b, 0xcf, 0xd8, 0x3c, 0x4c, 0x3f, 0xa, 0xbe, 0x18, 0x30, 0xf6, 0x3d, 0xdd, 0xb2, 0xa3, 0x3d, 0x2b, 0x40, 0x11, 0xbc, 0xe1, 0x5, 0x64, 0xbd, 0x59, 0x73, 0x9e, 0xbd, 0x5b, 0x3e, 0xce, 0xbd, 0xf1, 0x2e, 0x43, 0x3d, 0x1a, 0xa9, 0x5a, 0xbd, 0x9f, 0x5d, 0xee, 0x3d, 0x9d, 0x3a, 0x7c, 0xbd, 0xe6, 0x3, 0x1d, 0xbd, 0x22, 0x9c, 0x7e, 0x3d, 0x90, 0x30, 0xda, 0x3d, 0x44, 0x41, 0x21, 0x3d, 0xb0, 0x56, 0xae, 0x3d, 0x4, 0x1a, 0x96, 0xbd, 0xd7, 0xe5, 0x93, 0xbd, 0x2a, 0xc8, 0x6f, 0x3a, 0x28, 0x44, 0xd2, 0x3d, 0xac, 0xc7, 0xc1, 0xbd, 0x92, 0x89, 0xa0, 0xbd, 0xce, 0xb6, 0x45, 0x3c, 0x37, 0xae, 0x49, 0x3c, 0x7b, 0x1d, 0x17, 0xbe, 0x4a, 0xe9, 0x8c, 0xbc, 0x8b, 0x62, 0xc3, 0xbd, 0x64, 0x70, 0x17, 0x3d, 0x27, 0x82, 0xe9, 0x3b, 0x5, 0xa3, 0x8b, 0x3c, 0xea, 0x99, 0xbe, 0xbc, 0x5, 0x7b, 0xe, 0xbd, 0xf4, 0x1c, 0xee, 0xbd, 0xa6, 0x9f, 0x4a, 0x3e, 0xc1, 0x63, 0x20, 0xbe, 0x2b, 0xcf, 0xc8, 0xbd, 0x6a, 0x7d, 0xef, 0xbc, 0xf4, 0xf4, 0x2d, 0x3c, 0x51, 0x4a, 0xb1, 0x39, 0x24, 0x6b, 0xea, 0x3d, 0x14, 0xb3, 0x11, 0xbd, 0x85, 0x7, 0xee, 0xbd, 0xaf, 0xef, 0xc2, 0xbd, 0xc1, 0xc0, 0x14, 0x3d, 0xc0, 0xe4, 0x30, 0xbc, 0x2a, 0x26, 0xa6, 0xbc, 0x6a, 0x21, 0x19, 0xbc, 0x8b, 0x9e, 0xbf, 0xbb, 0x38, 0xf6, 0xe8, 0xbd, 0x5c, 0x82, 0x35, 0xbe, 0xfa, 0x14, 0x97, 0x3d, 0x71, 0xdc, 0xd, 0xbc, 0x7b, 0x73, 0x4c, 0xbd, 0x5c, 0x5b, 0x56, 0xbd, 0x11, 0x47, 0x3b, 0xbd, 0x36, 0xc, 0xa0, 0xbc, 0x11, 0xef, 0xc8, 0x3c, 0xef, 0xff, 0xf6, 0x3d, 0x68, 0x16, 0xbf, 0x3d, 0x12, 0xbe, 0x2f, 0x3d, 0x3, 0xde, 0x22, 0x3d, 0x47, 0x37, 0xe4, 0x3c, 0x19, 0xdb, 0xc8, 0x3c, 0xbb, 0xe4, 0x91, 0xbd, 0x5, 0xcd, 0x25, 0xbd, 0x33, 0x32, 0xaf, 0x3d, 0xea, 0xb, 0x5a, 0x3e, 0xe, 0xc5, 0xd, 0x3f, 0x6c, 0xa2, 0x28, 0x3d, 0xd6, 0x11, 0x7b, 0x3d, 0xf6, 0xba, 0x6f, 0xbe, 0x53, 0xca, 0x7, 0xbe, 0x97, 0xff, 0x1f, 0xbe, 0x54, 0x87, 0x2c, 0xbe, 0x8f, 0x61, 0xb5, 0x3e, 0xe1, 0xb2, 0x32, 0xbe, 0x9d, 0xe5, 0xbf, 0xbd, 0xd7, 0x33, 0xc4, 0xbd, 0x39, 0x8d, 0xc1, 0xbe, 0xa5, 0xab, 0xe, 0x3e, 0x2e, 0xce, 0x36, 0x3d, 0x39, 0xf6, 0x30, 0xbe, 0x6a, 0x28, 0x42, 0x3d, 0xf8, 0x59, 0xa9, 0xbb, 0xe8, 0x5d, 0xc7, 0x3d, 0x62, 0x8a, 0x8c, 0x3d, 0x6e, 0xe6, 0x60, 0x3e, 0x3f, 0x91, 0xe6, 0x3d, 0xb4, 0xb1, 0x9d, 0xbb, 0x72, 0x4f, 0xb0, 0x3e, 0xc6, 0x1b, 0x59, 0x3e, 0x10, 0x11, 0x3, 0x3e, 0x12, 0x38, 0x53, 0x3e, 0xb7, 0xe8, 0xca, 0xbc, 0x13, 0x61, 0x9a, 0xbd, 0x30, 0x2c, 0x1a, 0x3e, 0x7, 0x22, 0x8e, 0x3e, 0x9e, 0xc6, 0x82, 0x3e, 0x69, 0x49, 0x97, 0x3c, 0x9c, 0x8, 0x89, 0xbd, 0xb5, 0x11, 0x57, 0xbe, 0x2c, 0xab, 0x2f, 0xbe, 0xc6, 0x5f, 0xa0, 0x3d, 0x1c, 0x75, 0xdc, 0xbd, 0x52, 0xb8, 0x9, 0x3d, 0x78, 0x6a, 0x9b, 0x3e, 0xfa, 0x29, 0x1, 0x3e, 0x44, 0xe9, 0x24, 0xbe, 0x7a, 0x70, 0x80, 0xbd, 0xfb, 0x42, 0x7b, 0xbd, 0xdb, 0xa8, 0x15, 0x3f, 0xa, 0xc6, 0x60, 0xbe, 0x2d, 0x87, 0x45, 0xbd, 0xc2, 0xe4, 0x75, 0xbc, 0xde, 0x4b, 0x94, 0x3d, 0xa1, 0xf8, 0x96, 0xbe, 0x7b, 0x64, 0x5, 0x3b, 0x57, 0x4d, 0x9, 0xbe, 0x49, 0x22, 0x97, 0xbd, 0xcd, 0x8f, 0x4a, 0x3c, 0xf2, 0x8d, 0xb4, 0x3e, 0x9c, 0x4b, 0xb4, 0xbd, 0xb6, 0xb3, 0x82, 0x3e, 0x64, 0x4c, 0x85, 0x3d, 0x6b, 0x9c, 0x9f, 0x3d, 0xf7, 0xe7, 0x93, 0x3e, 0xfd, 0x6d, 0x9b, 0xbd, 0xea, 0x90, 0x97, 0x3e, 0x70, 0x6b, 0x6a, 0xbb, 0x5a, 0x46, 0x16, 0xbc, 0x34, 0xfc, 0xb6, 0xbe, 0x10, 0xf7, 0xb3, 0xbe, 0x83, 0xa9, 0xca, 0x3d, 0x47, 0xf7, 0x14, 0xbe, 0x8b, 0xeb, 0x8, 0x3e, 0x69, 0x2, 0x3d, 0xbe, 0xe, 0xe1, 0xa7, 0x3d, 0x13, 0x71, 0xf5, 0xbd, 0x96, 0x1e, 0xc3, 0xbd, 0xa0, 0x82, 0xbf, 0x3d, 0xd9, 0x84, 0xb6, 0x3e, 0x1f, 0xa9, 0xcc, 0xbe, 0xbd, 0x23, 0xc, 0xbf, 0x52, 0xfa, 0x67, 0xbd, 0xea, 0x47, 0x8a, 0x3d, 0xe1, 0x79, 0x84, 0x3e, 0x1f, 0x49, 0x12, 0xbe, 0xce, 0xbe, 0xd8, 0x3b, 0xd3, 0xcf, 0x90, 0xbe, 0x28, 0xb, 0xb6, 0xbd, 0xf9, 0xc0, 0x85, 0xbd, 0x3a, 0x7f, 0x13, 0x3d, 0x3c, 0x33, 0xd5, 0x3e, 0x57, 0xb5, 0xde, 0xbd, 0x31, 0xa1, 0x33, 0xbe, 0xd6, 0x5a, 0xf0, 0x3d, 0x8b, 0xf1, 0x3a, 0x3e, 0xdc, 0x81, 0x52, 0x3e, 0x30, 0xc7, 0xbf, 0x3e, 0xb0, 0x18, 0xae, 0x3e, 0xdc, 0xa1, 0xd0, 0x3a, 0xce, 0xdf, 0x25, 0xbd, 0xe4, 0x5f, 0x99, 0xbd, 0xf3, 0x15, 0x17, 0xbe, 0xa3, 0x53, 0x53, 0xbd, 0xbf, 0x1c, 0xd0, 0x3c, 0xe, 0x3b, 0x35, 0xbe, 0x22, 0x56, 0x9d, 0xbd, 0x5e, 0xd5, 0xab, 0x3e, 0x78, 0x83, 0xee, 0x3d, 0x58, 0xd2, 0x2e, 0xbe, 0xdd, 0x2f, 0x6b, 0xbe, 0xdd, 0x17, 0x4f, 0xbe, 0x72, 0x9, 0xb7, 0xbe, 0xc, 0x6c, 0xfa, 0x3a, 0xa1, 0xe4, 0x93, 0x3d, 0x8b, 0x90, 0xe1, 0xbd, 0xac, 0x3b, 0x86, 0x3e, 0xe8, 0xef, 0x37, 0xbe, 0x7e, 0x35, 0xd9, 0xbd, 0x67, 0x66, 0xd8, 0x3e, 0x56, 0x36, 0x90, 0x3e, 0xfb, 0x7f, 0x1d, 0xbe, 0xa3, 0xb, 0xf0, 0x3e, 0xfd, 0xbd, 0x23, 0x3e, 0xd, 0x3a, 0xab, 0xbd, 0xba, 0xb6, 0xcc, 0xbd, 0x38, 0xc1, 0xfc, 0x3d, 0x92, 0x89, 0x3a, 0xbe, 0x48, 0x17, 0xd3, 0x3d, 0xd6, 0xd, 0x97, 0x3e, 0x48, 0x41, 0x6, 0x3e, 0x66, 0x43, 0xc4, 0x3e, 0xe0, 0x13, 0x8f, 0x3d, 0x36, 0x17, 0xb9, 0x3e, 0xdf, 0x50, 0x39, 0xbe, 0x4b, 0xf3, 0xc4, 0x3d, 0x83, 0x8e, 0x26, 0xbd, 0x4a, 0xd5, 0xa7, 0x3d, 0xde, 0xd2, 0xdb, 0xbb, 0x5e, 0xbb, 0x28, 0xbe, 0x26, 0x4d, 0x6b, 0xbd, 0x98, 0x76, 0x6a, 0x3e, 0x25, 0xf9, 0x4, 0xbe, 0x14, 0x28, 0xa, 0xbd, 0x8, 0x29, 0xee, 0x3d, 0x5f, 0x63, 0x28, 0xbd, 0x4f, 0x8a, 0x82, 0xbd, 0x4e, 0xa9, 0x9b, 0x3d, 0x7c, 0xd3, 0xea, 0xbd, 0x8a, 0x8f, 0x3d, 0x3e, 0xf8, 0x14, 0x29, 0x3e, 0xdf, 0xbf, 0x5a, 0x3b, 0xdf, 0x9a, 0x6c, 0xbd, 0xaf, 0xbf, 0x6a, 0xbc, 0xe8, 0x23, 0x23, 0x3e, 0xad, 0x47, 0xd, 0x3d, 0x13, 0x76, 0x76, 0xbd, 0x1f, 0x16, 0x46, 0x3d, 0xbc, 0x84, 0xc, 0x3e, 0x32, 0x58, 0x4, 0x3c, 0x75, 0x7, 0xa2, 0x3d, 0x5f, 0x78, 0xf6, 0x3d, 0x2a, 0x3c, 0x5a, 0x3d, 0xb9, 0x8d, 0x84, 0x3d, 0xcf, 0xc1, 0x48, 0xbe, 0xac, 0x2b, 0x7d, 0x3d, 0x9e, 0xce, 0xe5, 0xbc, 0xed, 0x3c, 0x6, 0x3d, 0xa9, 0x5e, 0xc, 0xbe, 0x8b, 0xf8, 0x7b, 0xbb, 0xb, 0xf7, 0x6, 0x3e, 0xb7, 0xe9, 0xa4, 0x3b, 0xf2, 0x83, 0xcd, 0xbd, 0xbe, 0xc7, 0xaf, 0x3c, 0x20, 0x95, 0x55, 0x3c, 0xd0, 0x44, 0xb4, 0xba, 0x6e, 0xe3, 0xbb, 0x3c, 0x83, 0xb4, 0x86, 0x3d, 0x31, 0x41, 0x78, 0x3c, 0x1f, 0xe6, 0xbe, 0x3d, 0xd1, 0xe8, 0x13, 0xbe, 0xb8, 0x25, 0xee, 0x3d, 0x8b, 0xac, 0xa9, 0x3e, 0x6d, 0xff, 0x9e, 0xbc, 0xd9, 0xec, 0xa0, 0xbd, 0x0, 0xc7, 0xce, 0xbb, 0x1a, 0x4c, 0x72, 0x3e, 0x9f, 0x79, 0x94, 0x3d, 0xb2, 0xdf, 0x77, 0x3e, 0xd5, 0xc1, 0xa, 0x3e, 0x4e, 0x52, 0x7, 0x3e, 0xcd, 0x50, 0x13, 0x3e, 0xfa, 0xa4, 0x26, 0x3e, 0xc9, 0x5, 0x9e, 0x3d, 0xcd, 0xb1, 0x29, 0xbd, 0x66, 0xaf, 0xab, 0xbd, 0x5d, 0x95, 0x8c, 0x3e, 0xbc, 0x8c, 0x6e, 0x3e, 0xfd, 0x56, 0x34, 0xbe, 0x32, 0xce, 0xbb, 0xbc, 0xcb, 0x58, 0x4b, 0xbd, 0xa9, 0xc0, 0xe5, 0xbd, 0x76, 0xc7, 0xcf, 0xbc, 0xa8, 0xa7, 0x85, 0x3d, 0x4c, 0x21, 0x94, 0x3e, 0xa6, 0x4d, 0xed, 0xbd, 0xb, 0x98, 0x2a, 0xbe, 0xc5, 0x86, 0x85, 0x3e, 0x81, 0x39, 0x7d, 0x3e, 0x6, 0xee, 0xf0, 0x3c, 0x33, 0xc5, 0x8e, 0x3e, 0xcb, 0xf7, 0xed, 0xbd, 0xd9, 0x7a, 0x5f, 0x3d, 0x6b, 0x44, 0x44, 0xbc, 0xe3, 0xb1, 0x86, 0x3d, 0xc2, 0x69, 0x18, 0xbe, 0xc1, 0xcd, 0xd6, 0xbc, 0xc3, 0xa9, 0x29, 0xbe, 0x6e, 0x3, 0xa0, 0x3e, 0x6a, 0x38, 0x85, 0x3e, 0x9b, 0xbf, 0x96, 0x3e, 0xff, 0x7b, 0x5e, 0xbc, 0x8c, 0xbb, 0x9, 0x3d, 0xaf, 0xc8, 0x45, 0x3d, 0x49, 0xc5, 0x8e, 0x3d, 0x45, 0x59, 0xcd, 0x3b, 0xd8, 0x2e, 0x71, 0xbe, 0x8a, 0x38, 0x3a, 0xbe, 0xe1, 0x73, 0x42, 0x3e, 0x5e, 0xdd, 0x68, 0xbe, 0x14, 0x50, 0x9f, 0xbe, 0xe5, 0x62, 0x8c, 0x3d, 0xa3, 0xbb, 0x43, 0x3e, 0x74, 0x96, 0x98, 0xbe, 0x84, 0x5d, 0x6a, 0x3e, 0x85, 0x35, 0x17, 0xbe, 0xa7, 0x31, 0x74, 0xbe, 0x8e, 0xe4, 0xa5, 0xbd, 0x1a, 0x91, 0xde, 0x3d, 0x14, 0xdf, 0xb7, 0xbb, 0xe7, 0xcb, 0xc8, 0xbc, 0x29, 0x5c, 0xc1, 0xbd, 0xb3, 0x77, 0x32, 0xbd, 0xfa, 0x58, 0xba, 0x3d, 0x10, 0xcf, 0xb5, 0xbe, 0xe2, 0xf3, 0x91, 0xbc, 0x66, 0xd, 0x3e, 0xbd, 0x5b, 0x3e, 0x61, 0xbd, 0x5a, 0x4, 0x54, 0xbe, 0x9a, 0xc7, 0xab, 0x3d, 0xfd, 0xf, 0xc, 0xbe, 0x74, 0x16, 0xa0, 0x3e, 0x37, 0x8, 0x19, 0x3d, 0xef, 0x3d, 0xc5, 0x3d, 0x5e, 0xe5, 0x9b, 0xbd, 0xb9, 0x96, 0x80, 0x3d, 0x6, 0x3, 0x1c, 0x3d, 0x92, 0xf1, 0xff, 0xff, 0x4, 0x0, 0x0, 0x0, 0x0, 0x2, 0x0, 0x0, 0x3e, 0xbf, 0x11, 0xbe, 0x23, 0xe6, 0x7d, 0x3e, 0x64, 0x27, 0xe2, 0xbd, 0xc5, 0x8f, 0x8b, 0xbe, 0x1a, 0xfa, 0x12, 0xbe, 0x96, 0x3d, 0x49, 0xbe, 0x4b, 0x27, 0xb9, 0x3e, 0x5b, 0x61, 0x2f, 0x3e, 0xf1, 0xd3, 0xcd, 0xbe, 0x9, 0x6f, 0xa3, 0x3e, 0x84, 0x96, 0x9e, 0x3e, 0x13, 0xa, 0xa8, 0x3e, 0x0, 0xc6, 0xc3, 0xbe, 0x28, 0x9, 0xda, 0xbe, 0xa6, 0x6d, 0xaa, 0x3e, 0xbb, 0xc7, 0x84, 0xbe, 0xb9, 0x0, 0xe8, 0xbe, 0x7e, 0xe, 0x1d, 0xbe, 0x9b, 0x4d, 0x7e, 0x3e, 0x19, 0xed, 0x32, 0xbd, 0x8f, 0x11, 0xa8, 0x3d, 0x34, 0xc9, 0x23, 0xbd, 0x69, 0x2, 0x9c, 0xbe, 0x20, 0xbd, 0x23, 0xbe, 0x19, 0x7, 0x79, 0x3e, 0xf7, 0x7f, 0x72, 0xbe, 0xce, 0x67, 0xa0, 0xbe, 0x41, 0x7a, 0x9e, 0xbe, 0x7, 0xea, 0x1, 0x3e, 0x7c, 0x1a, 0xb7, 0xbc, 0x73, 0x61, 0x6f, 0xbe, 0x47, 0xbd, 0x77, 0x3e, 0xfb, 0xf7, 0xbb, 0xbe, 0x4b, 0x6c, 0x65, 0xbd, 0x9e, 0x68, 0x80, 0x3e, 0xd4, 0x47, 0xab, 0xbd, 0x82, 0xe5, 0x2f, 0x3e, 0xf, 0xbf, 0xe5, 0xbd, 0xcb, 0xa8, 0x2, 0xbe, 0x33, 0xe, 0xc0, 0xbd, 0xeb, 0x3b, 0x84, 0x3e, 0x0, 0xe2, 0x3e, 0xbd, 0x3f, 0xd, 0xb3, 0xbe, 0x1f, 0xd, 0x9d, 0xbe, 0x96, 0x2f, 0xa0, 0x3c, 0x47, 0x52, 0xa0, 0x3d, 0x1d, 0x13, 0x71, 0xbe, 0x86, 0xd8, 0x35, 0x3e, 0x5b, 0x79, 0x60, 0xbd, 0xdd, 0xb5, 0xe1, 0x3d, 0xfe, 0xf5, 0x86, 0xbe, 0xf6, 0x6, 0x66, 0xbe, 0x12, 0xd8, 0x2c, 0xbe, 0x88, 0xdc, 0x1d, 0xbd, 0x9f, 0xf8, 0x40, 0x3e, 0xd2, 0xe5, 0x99, 0xbd, 0x2, 0x91, 0xbb, 0xbe, 0xfa, 0x90, 0x25, 0x3e, 0x32, 0x73, 0x87, 0x3e, 0xa5, 0x51, 0x35, 0x3e, 0xab, 0xce, 0x2, 0xbf, 0x76, 0x7c, 0x84, 0xbe, 0x2c, 0xde, 0x6b, 0x3e, 0x34, 0x78, 0x96, 0xbe, 0xd6, 0xdf, 0xb4, 0xbd, 0x2b, 0xb7, 0x5c, 0x3d, 0x8c, 0x11, 0x25, 0xbe, 0x37, 0xee, 0xa1, 0xbe, 0x37, 0x2f, 0x1d, 0xbd, 0x1d, 0xe, 0x7f, 0xbd, 0x22, 0x94, 0x9e, 0x3e, 0x3c, 0xfd, 0x10, 0x3e, 0xdd, 0xcc, 0xd8, 0xbe, 0x68, 0x9a, 0xbf, 0x3e, 0xe3, 0xb3, 0x6e, 0x3e, 0x3a, 0x3a, 0xa0, 0x3e, 0xd7, 0x8, 0xd5, 0xbe, 0x9c, 0x6d, 0xff, 0xbe, 0x15, 0x86, 0xf4, 0x3e, 0x2e, 0x59, 0x8b, 0xbe, 0xc1, 0xbf, 0xd4, 0xbe, 0x7c, 0x36, 0x3b, 0xbe, 0xe5, 0x11, 0x9d, 0x3e, 0x78, 0xef, 0x14, 0x3d, 0x7d, 0x25, 0x4a, 0x3e, 0xdc, 0x8e, 0x22, 0xbe, 0x11, 0xbf, 0x1e, 0xbe, 0x1a, 0x45, 0x77, 0xbe, 0xc9, 0x80, 0xf1, 0x3c, 0x6c, 0x43, 0x3b, 0xbd, 0xc4, 0xdf, 0x6b, 0xbe, 0xe6, 0x4b, 0x7e, 0xbe, 0x9a, 0x30, 0x89, 0x3e, 0xa7, 0x5, 0x2f, 0xbe, 0x6c, 0x31, 0x9c, 0xbe, 0xaf, 0x89, 0x2, 0x3e, 0xac, 0x54, 0x99, 0xbd, 0x22, 0xa7, 0xaf, 0x3d, 0xc7, 0x34, 0x39, 0xbe, 0x66, 0x10, 0x95, 0xbe, 0xdf, 0x41, 0xf3, 0xbc, 0x14, 0x8a, 0xa2, 0x3c, 0x14, 0x54, 0x87, 0x3e, 0xc, 0xe5, 0xf8, 0x3d, 0x6, 0xea, 0xf8, 0xbe, 0xbe, 0xcd, 0xcf, 0x3e, 0xf, 0x41, 0xa7, 0x3d, 0x9e, 0x2e, 0x77, 0x3e, 0xe2, 0xbd, 0xd4, 0xbe, 0xa3, 0x62, 0xb4, 0xbe, 0xa6, 0x9, 0xdf, 0x3e, 0x78, 0xd1, 0x1b, 0xbe, 0x59, 0xfc, 0xdf, 0xbe, 0xbc, 0xa2, 0x91, 0x3d, 0x69, 0xa5, 0xaa, 0x3e, 0x9a, 0x4a, 0xf3, 0x3b, 0xb9, 0x71, 0xd8, 0x3d, 0x1, 0xc7, 0x8f, 0xbc, 0x2c, 0xe5, 0x39, 0xbe, 0x77, 0xc5, 0x69, 0xbe, 0x7d, 0x8, 0x8a, 0x3e, 0x45, 0xb0, 0x8f, 0xbe, 0xb2, 0x52, 0x0, 0xbe, 0xf8, 0xc8, 0x1a, 0xbe, 0xe9, 0xc5, 0x12, 0x3e, 0x6f, 0xa7, 0x13, 0x3e, 0x5c, 0xad, 0x8f, 0xbe, 0x71, 0x76, 0xb5, 0x3e, 0x9e, 0xf3, 0xff, 0xff, 0x4, 0x0, 0x0, 0x0, 0x20, 0x0, 0x0, 0x0, 0x4d, 0x2e, 0x8f, 0xbf, 0x87, 0xd7, 0x8e, 0x3f, 0xf5, 0xbb, 0x4b, 0x3f, 0xa, 0x60, 0x66, 0xbf, 0xe9, 0x68, 0x6d, 0xbf, 0x6c, 0x22, 0x73, 0x3f, 0xff, 0xed, 0x9b, 0xbf, 0xbc, 0x96, 0x76, 0x3f, 0xf0, 0xcb, 0xff, 0xff, 0xf4, 0xcb, 0xff, 0xff, 0xf, 0x0, 0x0, 0x0, 0x4d, 0x4c, 0x49, 0x52, 0x20, 0x43, 0x6f, 0x6e, 0x76, 0x65, 0x72, 0x74, 0x65, 0x64, 0x2e, 0x0, 0x1, 0x0, 0x0, 0x0, 0x14, 0x0, 0x0, 0x0, 0x0, 0x0, 0xe, 0x0, 0x18, 0x0, 0x14, 0x0, 0x10, 0x0, 0xc, 0x0, 0x8, 0x0, 0x4, 0x0, 0xe, 0x0, 0x0, 0x0, 0x14, 0x0, 0x0, 0x0, 0x1c, 0x0, 0x0, 0x0, 0xb8, 0xc, 0x0, 0x0, 0xbc, 0xc, 0x0, 0x0, 0xc0, 0xc, 0x0, 0x0, 0x4, 0x0, 0x0, 0x0, 0x6d, 0x61, 0x69, 0x6e, 0x0, 0x0, 0x0, 0x0, 0x41, 0x0, 0x0, 0x0, 0x68, 0xc, 0x0, 0x0, 0x8, 0xc, 0x0, 0x0, 0xb8, 0xb, 0x0, 0x0, 0x90, 0xb, 0x0, 0x0, 0x4c, 0xb, 0x0, 0x0, 0x24, 0xb, 0x0, 0x0, 0xe4, 0xa, 0x0, 0x0, 0xac, 0xa, 0x0, 0x0, 0x78, 0xa, 0x0, 0x0, 0x44, 0xa, 0x0, 0x0, 0x0, 0xa, 0x0, 0x0, 0xdc, 0x9, 0x0, 0x0, 0xb8, 0x9, 0x0, 0x0, 0x84, 0x9, 0x0, 0x0, 0x60, 0x9, 0x0, 0x0, 0x3c, 0x9, 0x0, 0x0, 0x8, 0x9, 0x0, 0x0, 0xd4, 0x8, 0x0, 0x0, 0xb0, 0x8, 0x0, 0x0, 0x7c, 0x8, 0x0, 0x0, 0x44, 0x8, 0x0, 0x0, 0xc, 0x8, 0x0, 0x0, 0xd8, 0x7, 0x0, 0x0, 0xa4, 0x7, 0x0, 0x0, 0x60, 0x7, 0x0, 0x0, 0x3c, 0x7, 0x0, 0x0, 0x18, 0x7, 0x0, 0x0, 0xe4, 0x6, 0x0, 0x0, 0xc0, 0x6, 0x0, 0x0, 0x9c, 0x6, 0x0, 0x0, 0x68, 0x6, 0x0, 0x0, 0x34, 0x6, 0x0, 0x0, 0x10, 0x6, 0x0, 0x0, 0xdc, 0x5, 0x0, 0x0, 0xa4, 0x5, 0x0, 0x0, 0x6c, 0x5, 0x0, 0x0, 0x38, 0x5, 0x0, 0x0, 0x4, 0x5, 0x0, 0x0, 0xc0, 0x4, 0x0, 0x0, 0x9c, 0x4, 0x0, 0x0, 0x78, 0x4, 0x0, 0x0, 0x44, 0x4, 0x0, 0x0, 0x20, 0x4, 0x0, 0x0, 0xfc, 0x3, 0x0, 0x0, 0xc8, 0x3, 0x0, 0x0, 0x94, 0x3, 0x0, 0x0, 0x70, 0x3, 0x0, 0x0, 0x3c, 0x3, 0x0, 0x0, 0x4, 0x3, 0x0, 0x0, 0xcc, 0x2, 0x0, 0x0, 0x98, 0x2, 0x0, 0x0, 0x64, 0x2, 0x0, 0x0, 0x20, 0x2, 0x0, 0x0, 0xfc, 0x1, 0x0, 0x0, 0xd8, 0x1, 0x0, 0x0, 0xa4, 0x1, 0x0, 0x0, 0x80, 0x1, 0x0, 0x0, 0x5c, 0x1, 0x0, 0x0, 0x28, 0x1, 0x0, 0x0, 0xf4, 0x0, 0x0, 0x0, 0xd0, 0x0, 0x0, 0x0, 0x9c, 0x0, 0x0, 0x0, 0x60, 0x0, 0x0, 0x0, 0x28, 0x0, 0x0, 0x0, 0x4, 0x0, 0x0, 0x0, 0x72, 0xf5, 0xff, 0xff, 0xc, 0x0, 0x0, 0x0, 0x10, 0x0, 0x0, 0x0, 0x9, 0x0, 0x0, 0x0, 0x1, 0x0, 0x0, 0x0, 0x5d, 0x0, 0x0, 0x0, 0x1, 0x0, 0x0, 0x0, 0x5c, 0x0, 0x0, 0x0, 0x26, 0xf5, 0xff, 0xff, 0x14, 0x0, 0x0, 0x0, 0x0, 0x0, 0x0, 0x8, 0x10, 0x0, 0x0, 0x0, 0x14, 0x0, 0x0, 0x0, 0x4, 0x0, 0x0, 0x0, 0x88, 0xcd, 0xff, 0xff, 0x1, 0x0, 0x0, 0x0, 0x5c, 0x0, 0x0, 0x0, 0x3, 0x0, 0x0, 0x0, 0x5b, 0x0, 0x0, 0x0, 0x1, 0x0, 0x0, 0x0, 0xd, 0x0, 0x0, 0x0, 0x5a, 0xf5, 0xff, 0xff, 0x14, 0x0, 0x0, 0x0, 0x0, 0x0, 0x0, 0x8, 0x14, 0x0, 0x0, 0x0, 0x18, 0x0, 0x0, 0x0, 0x4, 0x0, 0x0, 0x0, 0xf2, 0xf4, 0xff, 0xff, 0x0, 0x0, 0x0, 0x1, 0x1, 0x0, 0x0, 0x0, 0x5b, 0x0, 0x0, 0x0, 0x3, 0x0, 0x0, 0x0, 0x5a, 0x0, 0x0, 0x0, 0x2, 0x0, 0x0, 0x0, 0xb, 0x0, 0x0, 0x0, 0x92, 0xf5, 0xff, 0xff, 0x14, 0x0, 0x0, 0x0, 0x0, 0x0, 0x0, 0x15, 0x10, 0x0, 0x0, 0x0, 0x14, 0x0, 0x0, 0x0, 0xa, 0x0, 0x0, 0x0, 0xf4, 0xcd, 0xff, 0xff, 0x1, 0x0, 0x0, 0x0, 0x5a, 0x0, 0x0, 0x0, 0x2, 0x0, 0x0, 0x0, 0x55, 0x0, 0x0, 0x0, 0x59, 0x0, 0x0, 0x0, 0x2e, 0xf6, 0xff, 0xff, 0xc, 0x0, 0x0, 0x0, 0x10, 0x0, 0x0, 0x0, 0xb, 0x0, 0x0, 0x0, 0x1, 0x0, 0x0, 0x0, 0x59, 0x0, 0x0, 0x0, 0x1, 0x0, 0x0, 0x0, 0x58, 0x0, 0x0, 0x0, 0xe2, 0xf5, 0xff, 0xff, 0x14, 0x0, 0x0, 0x0, 0x0, 0x0, 0x0, 0xb, 0x10, 0x0, 0x0, 0x0, 0x14, 0x0, 0x0, 0x0, 0x7, 0x0, 0x0, 0x0, 0x44, 0xce, 0xff, 0xff, 0x1, 0x0, 0x0, 0x0, 0x58, 0x0, 0x0, 0x0, 0x2, 0x0, 0x0, 0x0, 0x54, 0x0, 0x0, 0x0, 0x57, 0x0, 0x0, 0x0, 0x12, 0xf6, 0xff, 0xff, 0x14, 0x0, 0x0, 0x0, 0x0, 0x0, 0x0, 0x15, 0x10, 0x0, 0x0, 0x0, 0x14, 0x0, 0x0, 0x0, 0xa, 0x0, 0x0, 0x0, 0x74, 0xce, 0xff, 0xff, 0x1, 0x0, 0x0, 0x0, 0x57, 0x0, 0x0, 0x0, 0x2, 0x0, 0x0, 0x0, 0x52, 0x0, 0x0, 0x0, 0x56, 0x0, 0x0, 0x0, 0xae, 0xf6, 0xff, 0xff, 0xc, 0x0, 0x0, 0x0, 0x10, 0x0, 0x0, 0x0, 0xb, 0x0, 0x0, 0x0, 0x1, 0x0, 0x0, 0x0, 0x56, 0x0, 0x0, 0x0, 0x1, 0x0, 0x0, 0x0, 0x50, 0x0, 0x0, 0x0, 0xce, 0xf6, 0xff, 0xff, 0xc, 0x0, 0x0, 0x0, 0x10, 0x0, 0x0, 0x0, 0x9, 0x0, 0x0, 0x0, 0x1, 0x0, 0x0, 0x0, 0x55, 0x0, 0x0, 0x0, 0x1, 0x0, 0x0, 0x0, 0x51, 0x0, 0x0, 0x0, 0x82, 0xf6, 0xff, 0xff, 0x14, 0x0, 0x0, 0x0, 0x0, 0x0, 0x0, 0x15, 0x10, 0x0, 0x0, 0x0, 0x14, 0x0, 0x0, 0x0, 0xa, 0x0, 0x0, 0x0, 0xe4, 0xce, 0xff, 0xff, 0x1, 0x0, 0x0, 0x0, 0x54, 0x0, 0x0, 0x0, 0x2, 0x0, 0x0, 0x0, 0x53, 0x0, 0x0, 0x0, 0x47, 0x0, 0x0, 0x0, 0x1e, 0xf7, 0xff, 0xff, 0xc, 0x0, 0x0, 0x0, 0x10, 0x0, 0x0, 0x0, 0x9, 0x0, 0x0, 0x0, 0x1, 0x0, 0x0, 0x0, 0x53, 0x0, 0x0, 0x0, 0x1, 0x0, 0x0, 0x0, 0x4f, 0x0, 0x0, 0x0, 0x3e, 0xf7, 0xff, 0xff, 0xc, 0x0, 0x0, 0x0, 0x10, 0x0, 0x0, 0x0, 0x9, 0x0, 0x0, 0x0, 0x1, 0x0, 0x0, 0x0, 0x52, 0x0, 0x0, 0x0, 0x1, 0x0, 0x0, 0x0, 0x4e, 0x0, 0x0, 0x0, 0xf2, 0xf6, 0xff, 0xff, 0x14, 0x0, 0x0, 0x0, 0x0, 0x0, 0x0, 0x23, 0x14, 0x0, 0x0, 0x0, 0x24, 0x0, 0x0, 0x0, 0x8, 0x0, 0x0, 0x0, 0x2e, 0xf7, 0xff, 0xff, 0x4, 0x0, 0x0, 0x0, 0x4, 0x0, 0x0, 0x0, 0x4e, 0x0, 0x0, 0x0, 0x4f, 0x0, 0x0, 0x0, 0x50, 0x0, 0x0, 0x0, 0x51, 0x0, 0x0, 0x0, 0x2, 0x0, 0x0, 0x0, 0x5, 0x0, 0x0, 0x0, 0x4d, 0x0, 0x0, 0x0, 0x32, 0xf7, 0xff, 0xff, 0x14, 0x0, 0x0, 0x0, 0x0, 0x0, 0x0, 0xb, 0x10, 0x0, 0x0, 0x0, 0x14, 0x0, 0x0, 0x0, 0x7, 0x0, 0x0, 0x0, 0x94, 0xcf, 0xff, 0xff, 0x1, 0x0, 0x0, 0x0, 0x4d, 0x0, 0x0, 0x0, 0x2, 0x0, 0x0, 0x0, 0x4c, 0x0, 0x0, 0x0, 0xc, 0x0, 0x0, 0x0, 0x62, 0xf7, 0xff, 0xff, 0x14, 0x0, 0x0, 0x0, 0x0, 0x0, 0x0, 0xb, 0x10, 0x0, 0x0, 0x0, 0x14, 0x0, 0x0, 0x0, 0x7, 0x0, 0x0, 0x0, 0xc4, 0xcf, 0xff, 0xff, 0x1, 0x0, 0x0, 0x0, 0x4c, 0x0, 0x0, 0x0, 0x2, 0x0, 0x0, 0x0, 0x4b, 0x0, 0x0, 0x0, 0x4a, 0x0, 0x0, 0x0, 0x92, 0xf7, 0xff, 0xff, 0x14, 0x0, 0x0, 0x0, 0x0, 0x0, 0x0, 0x8, 0x10, 0x0, 0x0, 0x0, 0x14, 0x0, 0x0, 0x0, 0x4, 0x0, 0x0, 0x0, 0xf4, 0xcf, 0xff, 0xff, 0x1, 0x0, 0x0, 0x0, 0x4b, 0x0, 0x0, 0x0, 0x3, 0x0, 0x0, 0x0, 0x17, 0x0, 0x0, 0x0, 0x3, 0x0, 0x0, 0x0, 0xff, 0xff, 0xff, 0xff, 0xc6, 0xf7, 0xff, 0xff, 0x14, 0x0, 0x0, 0x0, 0x0, 0x0, 0x0, 0x8, 0x10, 0x0, 0x0, 0x0, 0x14, 0x0, 0x0, 0x0, 0x4, 0x0, 0x0, 0x0, 0x28, 0xd0, 0xff, 0xff, 0x1, 0x0, 0x0, 0x0, 0x4a, 0x0, 0x0, 0x0, 0x3, 0x0, 0x0, 0x0, 0x49, 0x0, 0x0, 0x0, 0x4, 0x0, 0x0, 0x0, 0xff, 0xff, 0xff, 0xff, 0xfa, 0xf7, 0xff, 0xff, 0x14, 0x0, 0x0, 0x0, 0x0, 0x0, 0x0, 0x15, 0x10, 0x0, 0x0, 0x0, 0x14, 0x0, 0x0, 0x0, 0xa, 0x0, 0x0, 0x0, 0x5c, 0xd0, 0xff, 0xff, 0x1, 0x0, 0x0, 0x0, 0x49, 0x0, 0x0, 0x0, 0x2, 0x0, 0x0, 0x0, 0x44, 0x0, 0x0, 0x0, 0x48, 0x0, 0x0, 0x0, 0x96, 0xf8, 0xff, 0xff, 0xc, 0x0, 0x0, 0x0, 0x10, 0x0, 0x0, 0x0, 0xb, 0x0, 0x0, 0x0, 0x1, 0x0, 0x0, 0x0, 0x48, 0x0, 0x0, 0x0, 0x1, 0x0, 0x0, 0x0, 0x47, 0x0, 0x0, 0x0, 0x4a, 0xf8, 0xff, 0xff, 0x14, 0x0, 0x0, 0x0, 0x0, 0x0, 0x0, 0xb, 0x10, 0x0, 0x0, 0x0, 0x14, 0x0, 0x0, 0x0, 0x7, 0x0, 0x0, 0x0, 0xac, 0xd0, 0xff, 0xff, 0x1, 0x0, 0x0, 0x0, 0x47, 0x0, 0x0, 0x0, 0x2, 0x0, 0x0, 0x0, 0x43, 0x0, 0x0, 0x0, 0x46, 0x0, 0x0, 0x0, 0x7a, 0xf8, 0xff, 0xff, 0x14, 0x0, 0x0, 0x0, 0x0, 0x0, 0x0, 0x15, 0x10, 0x0, 0x0, 0x0, 0x14, 0x0, 0x0, 0x0, 0xa, 0x0, 0x0, 0x0, 0xdc, 0xd0, 0xff, 0xff, 0x1, 0x0, 0x0, 0x0, 0x46, 0x0, 0x0, 0x0, 0x2, 0x0, 0x0, 0x0, 0x41, 0x0, 0x0, 0x0, 0x45, 0x0, 0x0, 0x0, 0x16, 0xf9, 0xff, 0xff, 0xc, 0x0, 0x0, 0x0, 0x10, 0x0, 0x0, 0x0, 0xb, 0x0, 0x0, 0x0, 0x1, 0x0, 0x0, 0x0, 0x45, 0x0, 0x0, 0x0, 0x1, 0x0, 0x0, 0x0, 0x3f, 0x0, 0x0, 0x0, 0x36, 0xf9, 0xff, 0xff, 0xc, 0x0, 0x0, 0x0, 0x10, 0x0, 0x0, 0x0, 0x9, 0x0, 0x0, 0x0, 0x1, 0x0, 0x0, 0x0, 0x44, 0x0, 0x0, 0x0, 0x1, 0x0, 0x0, 0x0, 0x40, 0x0, 0x0, 0x0, 0xea, 0xf8, 0xff, 0xff, 0x14, 0x0, 0x0, 0x0, 0x0, 0x0, 0x0, 0x15, 0x10, 0x0, 0x0, 0x0, 0x14, 0x0, 0x0, 0x0, 0xa, 0x0, 0x0, 0x0, 0x4c, 0xd1, 0xff, 0xff, 0x1, 0x0, 0x0, 0x0, 0x43, 0x0, 0x0, 0x0, 0x2, 0x0, 0x0, 0x0, 0x42, 0x0, 0x0, 0x0, 0x36, 0x0, 0x0, 0x0, 0x86, 0xf9, 0xff, 0xff, 0xc, 0x0, 0x0, 0x0, 0x10, 0x0, 0x0, 0x0, 0x9, 0x0, 0x0, 0x0, 0x1, 0x0, 0x0, 0x0, 0x42, 0x0, 0x0, 0x0, 0x1, 0x0, 0x0, 0x0, 0x3e, 0x0, 0x0, 0x0, 0xa6, 0xf9, 0xff, 0xff, 0xc, 0x0, 0x0, 0x0, 0x10, 0x0, 0x0, 0x0, 0x9, 0x0, 0x0, 0x0, 0x1, 0x0, 0x0, 0x0, 0x41, 0x0, 0x0, 0x0, 0x1, 0x0, 0x0, 0x0, 0x3d, 0x0, 0x0, 0x0, 0x5a, 0xf9, 0xff, 0xff, 0x14, 0x0, 0x0, 0x0, 0x0, 0x0, 0x0, 0x23, 0x14, 0x0, 0x0, 0x0, 0x24, 0x0, 0x0, 0x0, 0x8, 0x0, 0x0, 0x0, 0x96, 0xf9, 0xff, 0xff, 0x4, 0x0, 0x0, 0x0, 0x4, 0x0, 0x0, 0x0, 0x3d, 0x0, 0x0, 0x0, 0x3e, 0x0, 0x0, 0x0, 0x3f, 0x0, 0x0, 0x0, 0x40, 0x0, 0x0, 0x0, 0x2, 0x0, 0x0, 0x0, 0x5, 0x0, 0x0, 0x0, 0x3c, 0x0, 0x0, 0x0, 0x9a, 0xf9, 0xff, 0xff, 0x14, 0x0, 0x0, 0x0, 0x0, 0x0, 0x0, 0xb, 0x10, 0x0, 0x0, 0x0, 0x14, 0x0, 0x0, 0x0, 0x7, 0x0, 0x0, 0x0, 0xfc, 0xd1, 0xff, 0xff, 0x1, 0x0, 0x0, 0x0, 0x3c, 0x0, 0x0, 0x0, 0x2, 0x0, 0x0, 0x0, 0x3b, 0x0, 0x0, 0x0, 0xc, 0x0, 0x0, 0x0, 0xca, 0xf9, 0xff, 0xff, 0x14, 0x0, 0x0, 0x0, 0x0, 0x0, 0x0, 0xb, 0x10, 0x0, 0x0, 0x0, 0x14, 0x0, 0x0, 0x0, 0x7, 0x0, 0x0, 0x0, 0x2c, 0xd2, 0xff, 0xff, 0x1, 0x0, 0x0, 0x0, 0x3b, 0x0, 0x0, 0x0, 0x2, 0x0, 0x0, 0x0, 0x3a, 0x0, 0x0, 0x0, 0x39, 0x0, 0x0, 0x0, 0xfa, 0xf9, 0xff, 0xff, 0x14, 0x0, 0x0, 0x0, 0x0, 0x0, 0x0, 0x8, 0x10, 0x0, 0x0, 0x0, 0x14, 0x0, 0x0, 0x0, 0x4, 0x0, 0x0, 0x0, 0x5c, 0xd2, 0xff, 0xff, 0x1, 0x0, 0x0, 0x0, 0x3a, 0x0, 0x0, 0x0, 0x3, 0x0, 0x0, 0x0, 0x16, 0x0, 0x0, 0x0, 0x3, 0x0, 0x0, 0x0, 0xff, 0xff, 0xff, 0xff, 0x2e, 0xfa, 0xff, 0xff, 0x14, 0x0, 0x0, 0x0, 0x0, 0x0, 0x0, 0x8, 0x10, 0x0, 0x0, 0x0, 0x14, 0x0, 0x0, 0x0, 0x4, 0x0, 0x0, 0x0, 0x90, 0xd2, 0xff, 0xff, 0x1, 0x0, 0x0, 0x0, 0x39, 0x0, 0x0, 0x0, 0x3, 0x0, 0x0, 0x0, 0x38, 0x0, 0x0, 0x0, 0x4, 0x0, 0x0, 0x0, 0xff, 0xff, 0xff, 0xff, 0x62, 0xfa, 0xff, 0xff, 0x14, 0x0, 0x0, 0x0, 0x0, 0x0, 0x0, 0x15, 0x10, 0x0, 0x0, 0x0, 0x14, 0x0, 0x0, 0x0, 0xa, 0x0, 0x0, 0x0, 0xc4, 0xd2, 0xff, 0xff, 0x1, 0x0, 0x0, 0x0, 0x38, 0x0, 0x0, 0x0, 0x2, 0x0, 0x0, 0x0, 0x33, 0x0, 0x0, 0x0, 0x37, 0x0, 0x0, 0x0, 0xfe, 0xfa, 0xff, 0xff, 0xc, 0x0, 0x0, 0x0, 0x10, 0x0, 0x0, 0x0, 0xb, 0x0, 0x0, 0x0, 0x1, 0x0, 0x0, 0x0, 0x37, 0x0, 0x0, 0x0, 0x1, 0x0, 0x0, 0x0, 0x36, 0x0, 0x0, 0x0, 0xb2, 0xfa, 0xff, 0xff, 0x14, 0x0, 0x0, 0x0, 0x0, 0x0, 0x0, 0xb, 0x10, 0x0, 0x0, 0x0, 0x14, 0x0, 0x0, 0x0, 0x7, 0x0, 0x0, 0x0, 0x14, 0xd3, 0xff, 0xff, 0x1, 0x0, 0x0, 0x0, 0x36, 0x0, 0x0, 0x0, 0x2, 0x0, 0x0, 0x0, 0x32, 0x0, 0x0, 0x0, 0x35, 0x0, 0x0, 0x0, 0xe2, 0xfa, 0xff, 0xff, 0x14, 0x0, 0x0, 0x0, 0x0, 0x0, 0x0, 0x15, 0x10, 0x0, 0x0, 0x0, 0x14, 0x0, 0x0, 0x0, 0xa, 0x0, 0x0, 0x0, 0x44, 0xd3, 0xff, 0xff, 0x1, 0x0, 0x0, 0x0, 0x35, 0x0, 0x0, 0x0, 0x2, 0x0, 0x0, 0x0, 0x30, 0x0, 0x0, 0x0, 0x34, 0x0, 0x0, 0x0, 0x7e, 0xfb, 0xff, 0xff, 0xc, 0x0, 0x0, 0x0, 0x10, 0x0, 0x0, 0x0, 0xb, 0x0, 0x0, 0x0, 0x1, 0x0, 0x0, 0x0, 0x34, 0x0, 0x0, 0x0, 0x1, 0x0, 0x0, 0x0, 0x2e, 0x0, 0x0, 0x0, 0x9e, 0xfb, 0xff, 0xff, 0xc, 0x0, 0x0, 0x0, 0x10, 0x0, 0x0, 0x0, 0x9, 0x0, 0x0, 0x0, 0x1, 0x0, 0x0, 0x0, 0x33, 0x0, 0x0, 0x0, 0x1, 0x0, 0x0, 0x0, 0x2f, 0x0, 0x0, 0x0, 0x52, 0xfb, 0xff, 0xff, 0x14, 0x0, 0x0, 0x0, 0x0, 0x0, 0x0, 0x15, 0x10, 0x0, 0x0, 0x0, 0x14, 0x0, 0x0, 0x0, 0xa, 0x0, 0x0, 0x0, 0xb4, 0xd3, 0xff, 0xff, 0x1, 0x0, 0x0, 0x0, 0x32, 0x0, 0x0, 0x0, 0x2, 0x0, 0x0, 0x0, 0x31, 0x0, 0x0, 0x0, 0x25, 0x0, 0x0, 0x0, 0xee, 0xfb, 0xff, 0xff, 0xc, 0x0, 0x0, 0x0, 0x10, 0x0, 0x0, 0x0, 0x9, 0x0, 0x0, 0x0, 0x1, 0x0, 0x0, 0x0, 0x31, 0x0, 0x0, 0x0, 0x1, 0x0, 0x0, 0x0, 0x2d, 0x0, 0x0, 0x0, 0xe, 0xfc, 0xff, 0xff, 0xc, 0x0, 0x0, 0x0, 0x10, 0x0, 0x0, 0x0, 0x9, 0x0, 0x0, 0x0, 0x1, 0x0, 0x0, 0x0, 0x30, 0x0, 0x0, 0x0, 0x1, 0x0, 0x0, 0x0, 0x2c, 0x0, 0x0, 0x0, 0xc2, 0xfb, 0xff, 0xff, 0x14, 0x0, 0x0, 0x0, 0x0, 0x0, 0x0, 0x23, 0x14, 0x0, 0x0, 0x0, 0x24, 0x0, 0x0, 0x0, 0x8, 0x0, 0x0, 0x0, 0xfe, 0xfb, 0xff, 0xff, 0x4, 0x0, 0x0, 0x0, 0x4, 0x0, 0x0, 0x0, 0x2c, 0x0, 0x0, 0x0, 0x2d, 0x0, 0x0, 0x0, 0x2e, 0x0, 0x0, 0x0, 0x2f, 0x0, 0x0, 0x0, 0x2, 0x0, 0x0, 0x0, 0x5, 0x0, 0x0, 0x0, 0x2b, 0x0, 0x0, 0x0, 0x2, 0xfc, 0xff, 0xff, 0x14, 0x0, 0x0, 0x0, 0x0, 0x0, 0x0, 0xb, 0x10, 0x0, 0x0, 0x0, 0x14, 0x0, 0x0, 0x0, 0x7, 0x0, 0x0, 0x0, 0x64, 0xd4, 0xff, 0xff, 0x1, 0x0, 0x0, 0x0, 0x2b, 0x0, 0x0, 0x0, 0x2, 0x0, 0x0, 0x0, 0x2a, 0x0, 0x0, 0x0, 0xc, 0x0, 0x0, 0x0, 0x32, 0xfc, 0xff, 0xff, 0x14, 0x0, 0x0, 0x0, 0x0, 0x0, 0x0, 0xb, 0x10, 0x0, 0x0, 0x0, 0x14, 0x0, 0x0, 0x0, 0x7, 0x0, 0x0, 0x0, 0x94, 0xd4, 0xff, 0xff, 0x1, 0x0, 0x0, 0x0, 0x2a, 0x0, 0x0, 0x0, 0x2, 0x0, 0x0, 0x0, 0x29, 0x0, 0x0, 0x0, 0x28, 0x0, 0x0, 0x0, 0x62, 0xfc, 0xff, 0xff, 0x14, 0x0, 0x0, 0x0, 0x0, 0x0, 0x0, 0x8, 0x10, 0x0, 0x0, 0x0, 0x14, 0x0, 0x0, 0x0, 0x4, 0x0, 0x0, 0x0, 0xc4, 0xd4, 0xff, 0xff, 0x1, 0x0, 0x0, 0x0, 0x29, 0x0, 0x0, 0x0, 0x3, 0x0, 0x0, 0x0, 0x15, 0x0, 0x0, 0x0, 0x3, 0x0, 0x0, 0x0, 0xff, 0xff, 0xff, 0xff, 0x96, 0xfc, 0xff, 0xff, 0x14, 0x0, 0x0, 0x0, 0x0, 0x0, 0x0, 0x8, 0x10, 0x0, 0x0, 0x0, 0x14, 0x0, 0x0, 0x0, 0x4, 0x0, 0x0, 0x0, 0xf8, 0xd4, 0xff, 0xff, 0x1, 0x0, 0x0, 0x0, 0x28, 0x0, 0x0, 0x0, 0x3, 0x0, 0x0, 0x0, 0x27, 0x0, 0x0, 0x0, 0x4, 0x0, 0x0, 0x0, 0xff, 0xff, 0xff, 0xff, 0xca, 0xfc, 0xff, 0xff, 0x14, 0x0, 0x0, 0x0, 0x0, 0x0, 0x0, 0x15, 0x10, 0x0, 0x0, 0x0, 0x14, 0x0, 0x0, 0x0, 0xa, 0x0, 0x0, 0x0, 0x2c, 0xd5, 0xff, 0xff, 0x1, 0x0, 0x0, 0x0, 0x27, 0x0, 0x0, 0x0, 0x2, 0x0, 0x0, 0x0, 0x22, 0x0, 0x0, 0x0, 0x26, 0x0, 0x0, 0x0, 0x66, 0xfd, 0xff, 0xff, 0xc, 0x0, 0x0, 0x0, 0x10, 0x0, 0x0, 0x0, 0xb, 0x0, 0x0, 0x0, 0x1, 0x0, 0x0, 0x0, 0x26, 0x0, 0x0, 0x0, 0x1, 0x0, 0x0, 0x0, 0x25, 0x0, 0x0, 0x0, 0x1a, 0xfd, 0xff, 0xff, 0x14, 0x0, 0x0, 0x0, 0x0, 0x0, 0x0, 0xb, 0x10, 0x0, 0x0, 0x0, 0x14, 0x0, 0x0, 0x0, 0x7, 0x0, 0x0, 0x0, 0x7c, 0xd5, 0xff, 0xff, 0x1, 0x0, 0x0, 0x0, 0x25, 0x0, 0x0, 0x0, 0x2, 0x0, 0x0, 0x0, 0x21, 0x0, 0x0, 0x0, 0x24, 0x0, 0x0, 0x0, 0x4a, 0xfd, 0xff, 0xff, 0x14, 0x0, 0x0, 0x0, 0x0, 0x0, 0x0, 0x15, 0x10, 0x0, 0x0, 0x0, 0x14, 0x0, 0x0, 0x0, 0xa, 0x0, 0x0, 0x0, 0xac, 0xd5, 0xff, 0xff, 0x1, 0x0, 0x0, 0x0, 0x24, 0x0, 0x0, 0x0, 0x2, 0x0, 0x0, 0x0, 0x1f, 0x0, 0x0, 0x0, 0x23, 0x0, 0x0, 0x0, 0xe6, 0xfd, 0xff, 0xff, 0xc, 0x0, 0x0, 0x0, 0x10, 0x0, 0x0, 0x0, 0xb, 0x0, 0x0, 0x0, 0x1, 0x0, 0x0, 0x0, 0x23, 0x0, 0x0, 0x0, 0x1, 0x0, 0x0, 0x0, 0x1d, 0x0, 0x0, 0x0, 0x6, 0xfe, 0xff, 0xff, 0xc, 0x0, 0x0, 0x0, 0x10, 0x0, 0x0, 0x0, 0x9, 0x0, 0x0, 0x0, 0x1, 0x0, 0x0, 0x0, 0x22, 0x0, 0x0, 0x0, 0x1, 0x0, 0x0, 0x0, 0x1e, 0x0, 0x0, 0x0, 0xba, 0xfd, 0xff, 0xff, 0x14, 0x0, 0x0, 0x0, 0x0, 0x0, 0x0, 0x15, 0x10, 0x0, 0x0, 0x0, 0x14, 0x0, 0x0, 0x0, 0xa, 0x0, 0x0, 0x0, 0x1c, 0xd6, 0xff, 0xff, 0x1, 0x0, 0x0, 0x0, 0x21, 0x0, 0x0, 0x0, 0x2, 0x0, 0x0, 0x0, 0x20, 0x0, 0x0, 0x0, 0x11, 0x0, 0x0, 0x0, 0x56, 0xfe, 0xff, 0xff, 0xc, 0x0, 0x0, 0x0, 0x10, 0x0, 0x0, 0x0, 0x9, 0x0, 0x0, 0x0, 0x1, 0x0, 0x0, 0x0, 0x20, 0x0, 0x0, 0x0, 0x1, 0x0, 0x0, 0x0, 0x1c, 0x0, 0x0, 0x0, 0x76, 0xfe, 0xff, 0xff, 0xc, 0x0, 0x0, 0x0, 0x10, 0x0, 0x0, 0x0, 0x9, 0x0, 0x0, 0x0, 0x1, 0x0, 0x0, 0x0, 0x1f, 0x0, 0x0, 0x0, 0x1, 0x0, 0x0, 0x0, 0x1b, 0x0, 0x0, 0x0, 0x2a, 0xfe, 0xff, 0xff, 0x14, 0x0, 0x0, 0x0, 0x0, 0x0, 0x0, 0x23, 0x14, 0x0, 0x0, 0x0, 0x24, 0x0, 0x0, 0x0, 0x8, 0x0, 0x0, 0x0, 0x66, 0xfe, 0xff, 0xff, 0x4, 0x0, 0x0, 0x0, 0x4, 0x0, 0x0, 0x0, 0x1b, 0x0, 0x0, 0x0, 0x1c, 0x0, 0x0, 0x0, 0x1d, 0x0, 0x0, 0x0, 0x1e, 0x0, 0x0, 0x0, 0x2, 0x0, 0x0, 0x0, 0x5, 0x0, 0x0, 0x0, 0x1a, 0x0, 0x0, 0x0, 0x6a, 0xfe, 0xff, 0xff, 0x14, 0x0, 0x0, 0x0, 0x0, 0x0, 0x0, 0xb, 0x10, 0x0, 0x0, 0x0, 0x14, 0x0, 0x0, 0x0, 0x7, 0x0, 0x0, 0x0, 0xcc, 0xd6, 0xff, 0xff, 0x1, 0x0, 0x0, 0x0, 0x1a, 0x0, 0x0, 0x0, 0x2, 0x0, 0x0, 0x0, 0x19, 0x0, 0x0, 0x0, 0xc, 0x0, 0x0, 0x0, 0x9a, 0xfe, 0xff, 0xff, 0x14, 0x0, 0x0, 0x0, 0x0, 0x0, 0x0, 0xb, 0x10, 0x0, 0x0, 0x0, 0x14, 0x0, 0x0, 0x0, 0x7, 0x0, 0x0, 0x0, 0xfc, 0xd6, 0xff, 0xff, 0x1, 0x0, 0x0, 0x0, 0x19, 0x0, 0x0, 0x0, 0x2, 0x0, 0x0, 0x0, 0x18, 0x0, 0x0, 0x0, 0x12, 0x0, 0x0, 0x0, 0xca, 0xfe, 0xff, 0xff, 0x14, 0x0, 0x0, 0x0, 0x0, 0x0, 0x0, 0x8, 0x10, 0x0, 0x0, 0x0, 0x14, 0x0, 0x0, 0x0, 0x4, 0x0, 0x0, 0x0, 0x2c, 0xd7, 0xff, 0xff, 0x1, 0x0, 0x0, 0x0, 0x18, 0x0, 0x0, 0x0, 0x3, 0x0, 0x0, 0x0, 0x14, 0x0, 0x0, 0x0, 0x3, 0x0, 0x0, 0x0, 0xff, 0xff, 0xff, 0xff, 0xfe, 0xfe, 0xff, 0xff, 0x14, 0x0, 0x0, 0x0, 0x0, 0x0, 0x0, 0x40, 0x14, 0x0, 0x0, 0x0, 0x24, 0x0, 0x0, 0x0, 0x6, 0x0, 0x0, 0x0, 0x3a, 0xff, 0xff, 0xff, 0x4, 0x0, 0x0, 0x0, 0x4, 0x0, 0x0, 0x0, 0x14, 0x0, 0x0, 0x0, 0x15, 0x0, 0x0, 0x0, 0x16, 0x0, 0x0, 0x0, 0x17, 0x0, 0x0, 0x0, 0x1, 0x0, 0x0, 0x0, 0x13, 0x0, 0x0, 0x0, 0xa6, 0xff, 0xff, 0xff, 0xc, 0x0, 0x0, 0x0, 0x10, 0x0, 0x0, 0x0, 0x5, 0x0, 0x0, 0x0, 0x1, 0x0, 0x0, 0x0, 0x13, 0x0, 0x0, 0x0, 0x2, 0x0, 0x0, 0x0, 0x0, 0x0, 0x0, 0x0, 0x8, 0x0, 0x0, 0x0, 0x5e, 0xff, 0xff, 0xff, 0x14, 0x0, 0x0, 0x0, 0x0, 0x0, 0x0, 0x8, 0x10, 0x0, 0x0, 0x0, 0x14, 0x0, 0x0, 0x0, 0x4, 0x0, 0x0, 0x0, 0xc0, 0xd7, 0xff, 0xff, 0x1, 0x0, 0x0, 0x0, 0x12, 0x0, 0x0, 0x0, 0x3, 0x0, 0x0, 0x0, 0x11, 0x0, 0x0, 0x0, 0x4, 0x0, 0x0, 0x0, 0xff, 0xff, 0xff, 0xff, 0x0, 0x0, 0xa, 0x0, 0x10, 0x0, 0xc, 0x0, 0x8, 0x0, 0x4, 0x0, 0xa, 0x0, 0x0, 0x0, 0xc, 0x0, 0x0, 0x0, 0x10, 0x0, 0x0, 0x0, 0x3, 0x0, 0x0, 0x0, 0x1, 0x0, 0x0, 0x0, 0x11, 0x0, 0x0, 0x0, 0x2, 0x0, 0x0, 0x0, 0x10, 0x0, 0x0, 0x0, 0x9, 0x0, 0x0, 0x0, 0xc2, 0xff, 0xff, 0xff, 0x1c, 0x0, 0x0, 0x0, 0x0, 0x0, 0x0, 0x3b, 0x1c, 0x0, 0x0, 0x0, 0x20, 0x0, 0x0, 0x0, 0x2, 0x0, 0x0, 0x0, 0x0, 0x0, 0x6, 0x0, 0x8, 0x0, 0x4, 0x0, 0x6, 0x0, 0x0, 0x0, 0x2, 0x0, 0x0, 0x0, 0x1, 0x0, 0x0, 0x0, 0x10, 0x0, 0x0, 0x0, 0x2, 0x0, 0x0, 0x0, 0xf, 0x0, 0x0, 0x0, 0xa, 0x0, 0x0, 0x0, 0x0, 0x0, 0xe, 0x0, 0x1a, 0x0, 0x14, 0x0, 0x10, 0x0, 0xc, 0x0, 0xb, 0x0, 0x4, 0x0, 0xe, 0x0, 0x0, 0x0, 0x24, 0x0, 0x0, 0x0, 0x0, 0x0, 0x0, 0x20, 0x24, 0x0, 0x0, 0x0, 0x28, 0x0, 0x0, 0x0, 0x1, 0x0, 0x0, 0x0, 0x0, 0x0, 0xe, 0x0, 0x8, 0x0, 0x0, 0x0, 0x0, 0x0, 0x0, 0x0, 0x0, 0x0, 0x4, 0x0, 0xe, 0x0, 0x0, 0x0, 0x1, 0x0, 0x0, 0x0, 0x1, 0x0, 0x0, 0x0, 0xf, 0x0, 0x0, 0x0, 0x4, 0x0, 0x0, 0x0, 0xe, 0x0, 0x0, 0x0, 0x6, 0x0, 0x0, 0x0, 0x7, 0x0, 0x0, 0x0, 0x7, 0x0, 0x0, 0x0, 0x0, 0x0, 0xe, 0x0, 0x16, 0x0, 0x0, 0x0, 0x10, 0x0, 0xc, 0x0, 0xb, 0x0, 0x4, 0x0, 0xe, 0x0, 0x0, 0x0, 0x18, 0x0, 0x0, 0x0, 0x0, 0x0, 0x0, 0x37, 0x18, 0x0, 0x0, 0x0, 0x1c, 0x0, 0x0, 0x0, 0x0, 0x0, 0x6, 0x0, 0x8, 0x0, 0x7, 0x0, 0x6, 0x0, 0x0, 0x0, 0x0, 0x0, 0x0, 0x2, 0x1, 0x0, 0x0, 0x0, 0xe, 0x0, 0x0, 0x0, 0x1, 0x0, 0x0, 0x0, 0x0, 0x0, 0x0, 0x0, 0x1, 0x0, 0x0, 0x0, 0x5d, 0x0, 0x0, 0x0, 0x1, 0x0, 0x0, 0x0, 0x0, 0x0, 0x0, 0x0, 0x5e, 0x0, 0x0, 0x0, 0x3c, 0x26, 0x0, 0x0, 0xe4, 0x25, 0x0, 0x0, 0x8c, 0x25, 0x0, 0x0, 0x4c, 0x25, 0x0, 0x0, 0xc, 0x25, 0x0, 0x0, 0xd0, 0x24, 0x0, 0x0, 0x58, 0x24, 0x0, 0x0, 0x18, 0x24, 0x0, 0x0, 0xbc, 0x23, 0x0, 0x0, 0x84, 0x23, 0x0, 0x0, 0x48, 0x23, 0x0, 0x0, 0xe8, 0x22, 0x0, 0x0, 0x80, 0x22, 0x0, 0x0, 0x24, 0x22, 0x0, 0x0, 0xd4, 0x21, 0x0, 0x0, 0x80, 0x21, 0x0, 0x0, 0x28, 0x21, 0x0, 0x0, 0xc8, 0x20, 0x0, 0x0, 0x58, 0x20, 0x0, 0x0, 0xec, 0x1f, 0x0, 0x0, 0x88, 0x1f, 0x0, 0x0, 0x24, 0x1f, 0x0, 0x0, 0xc0, 0x1e, 0x0, 0x0, 0x5c, 0x1e, 0x0, 0x0, 0xec, 0x1d, 0x0, 0x0, 0x80, 0x1d, 0x0, 0x0, 0x14, 0x1d, 0x0, 0x0, 0xa8, 0x1c, 0x0, 0x0, 0x38, 0x1c, 0x0, 0x0, 0xc8, 0x1b, 0x0, 0x0, 0x58, 0x1b, 0x0, 0x0, 0xe8, 0x1a, 0x0, 0x0, 0x78, 0x1a, 0x0, 0x0, 0xc, 0x1a, 0x0, 0x0, 0x9c, 0x19, 0x0, 0x0, 0x30, 0x19, 0x0, 0x0, 0xc4, 0x18, 0x0, 0x0, 0x58, 0x18, 0x0, 0x0, 0xe8, 0x17, 0x0, 0x0, 0x7c, 0x17, 0x0, 0x0, 0xc, 0x17, 0x0, 0x0, 0x9c, 0x16, 0x0, 0x0, 0x30, 0x16, 0x0, 0x0, 0xc4, 0x15, 0x0, 0x0, 0x58, 0x15, 0x0, 0x0, 0xe8, 0x14, 0x0, 0x0, 0x78, 0x14, 0x0, 0x0, 0x8, 0x14, 0x0, 0x0, 0x98, 0x13, 0x0, 0x0, 0x28, 0x13, 0x0, 0x0, 0xbc, 0x12, 0x0, 0x0, 0x4c, 0x12, 0x0, 0x0, 0xe0, 0x11, 0x0, 0x0, 0x74, 0x11, 0x0, 0x0, 0x8, 0x11, 0x0, 0x0, 0x98, 0x10, 0x0, 0x0, 0x2c, 0x10, 0x0, 0x0, 0xbc, 0xf, 0x0, 0x0, 0x4c, 0xf, 0x0, 0x0, 0xe0, 0xe, 0x0, 0x0, 0x74, 0xe, 0x0, 0x0, 0x8, 0xe, 0x0, 0x0, 0x98, 0xd, 0x0, 0x0, 0x28, 0xd, 0x0, 0x0, 0xb8, 0xc, 0x0, 0x0, 0x48, 0xc, 0x0, 0x0, 0xd8, 0xb, 0x0, 0x0, 0x6c, 0xb, 0x0, 0x0, 0xfc, 0xa, 0x0, 0x0, 0x90, 0xa, 0x0, 0x0, 0x24, 0xa, 0x0, 0x0, 0xb8, 0x9, 0x0, 0x0, 0x48, 0x9, 0x0, 0x0, 0xdc, 0x8, 0x0, 0x0, 0x6c, 0x8, 0x0, 0x0, 0xfc, 0x7, 0x0, 0x0, 0x90, 0x7, 0x0, 0x0, 0x24, 0x7, 0x0, 0x0, 0xb8, 0x6, 0x0, 0x0, 0x48, 0x6, 0x0, 0x0, 0xd8, 0x5, 0x0, 0x0, 0x68, 0x5, 0x0, 0x0, 0xf8, 0x4, 0x0, 0x0, 0x88, 0x4, 0x0, 0x0, 0x1c, 0x4, 0x0, 0x0, 0xac, 0x3, 0x0, 0x0, 0x40, 0x3, 0x0, 0x0, 0xd4, 0x2, 0x0, 0x0, 0x68, 0x2, 0x0, 0x0, 0xf8, 0x1, 0x0, 0x0, 0x8c, 0x1, 0x0, 0x0, 0xe4, 0x0, 0x0, 0x0, 0x60, 0x0, 0x0, 0x0, 0x4, 0x0, 0x0, 0x0, 0x52, 0xdb, 0xff, 0xff, 0x0, 0x0, 0x0, 0x1, 0x14, 0x0, 0x0, 0x0, 0x1c, 0x0, 0x0, 0x0, 0x1c, 0x0, 0x0, 0x0, 0x5e, 0x0, 0x0, 0x0, 0x34, 0x0, 0x0, 0x0, 0x2, 0x0, 0x0, 0x0, 0xff, 0xff, 0xff, 0xff, 0x1, 0x0, 0x0, 0x0, 0x9c, 0xda, 0xff, 0xff, 0x1b, 0x0, 0x0, 0x0, 0x53, 0x74, 0x61, 0x74, 0x65, 0x66, 0x75, 0x6c, 0x50, 0x61, 0x72, 0x74, 0x69, 0x74, 0x69, 0x6f, 0x6e, 0x65, 0x64, 0x43, 0x61, 0x6c, 0x6c, 0x5f, 0x31, 0x3a, 0x30, 0x0, 0x2, 0x0, 0x0, 0x0, 0x1, 0x0, 0x0, 0x0, 0x1, 0x0, 0x0, 0x0, 0xaa, 0xdb, 0xff, 0xff, 0x0, 0x0, 0x0, 0x1, 0x14, 0x0, 0x0, 0x0, 0x1c, 0x0, 0x0, 0x0, 0x1c, 0x0, 0x0, 0x0, 0x5d, 0x0, 0x0, 0x0, 0x5c, 0x0, 0x0, 0x0, 0x2, 0x0, 0x0, 0x0, 0xff, 0xff, 0xff, 0xff, 0x1, 0x0, 0x0, 0x0, 0xf4, 0xda, 0xff, 0xff, 0x42, 0x0, 0x0, 0x0, 0x66, 0x75, 0x6e, 0x63, 0x74, 0x69, 0x6f, 0x6e, 0x61, 0x6c, 0x5f, 0x31, 0x2f, 0x6f, 0x75, 0x74, 0x70, 0x75, 0x74, 0x5f, 0x6c, 0x61, 0x79, 0x65, 0x72, 0x5f, 0x31, 0x2f, 0x4d, 0x61, 0x74, 0x4d, 0x75, 0x6c, 0x3b, 0x66, 0x75, 0x6e, 0x63, 0x74, 0x69, 0x6f, 0x6e, 0x61, 0x6c, 0x5f, 0x31, 0x2f, 0x6f, 0x75, 0x74, 0x70, 0x75, 0x74, 0x5f, 0x6c, 0x61, 0x79, 0x65, 0x72, 0x5f, 0x31, 0x2f, 0x41, 0x64, 0x64, 0x0, 0x0, 0x2, 0x0, 0x0, 0x0, 0x1, 0x0, 0x0, 0x0, 0x1, 0x0, 0x0, 0x0, 0x2a, 0xdc, 0xff, 0xff, 0x0, 0x0, 0x0, 0x1, 0x14, 0x0, 0x0, 0x0, 0x1c, 0x0, 0x0, 0x0, 0x1c, 0x0, 0x0, 0x0, 0x5c, 0x0, 0x0, 0x0, 0x80, 0x0, 0x0, 0x0, 0x2, 0x0, 0x0, 0x0, 0xff, 0xff, 0xff, 0xff, 0x8, 0x0, 0x0, 0x0, 0x74, 0xdb, 0xff, 0xff, 0x64, 0x0, 0x0, 0x0, 0x66, 0x75, 0x6e, 0x63, 0x74, 0x69, 0x6f, 0x6e, 0x61, 0x6c, 0x5f, 0x31, 0x2f, 0x64, 0x65, 0x6e, 0x73, 0x65, 0x5f, 0x6c, 0x61, 0x79, 0x65, 0x72, 0x5f, 0x31, 0x2f, 0x4d, 0x61, 0x74, 0x4d, 0x75, 0x6c, 0x3b, 0x66, 0x75, 0x6e, 0x63, 0x74, 0x69, 0x6f, 0x6e, 0x61, 0x6c, 0x5f, 0x31, 0x2f, 0x64, 0x65, 0x6e, 0x73, 0x65, 0x5f, 0x6c, 0x61, 0x79, 0x65, 0x72, 0x5f, 0x31, 0x2f, 0x52, 0x65, 0x6c, 0x75, 0x3b, 0x66, 0x75, 0x6e, 0x63, 0x74, 0x69, 0x6f, 0x6e, 0x61, 0x6c, 0x5f, 0x31, 0x2f, 0x64, 0x65, 0x6e, 0x73, 0x65, 0x5f, 0x6c, 0x61, 0x79, 0x65, 0x72, 0x5f, 0x31, 0x2f, 0x42, 0x69, 0x61, 0x73, 0x41, 0x64, 0x64, 0x0, 0x0, 0x0, 0x0, 0x2, 0x0, 0x0, 0x0, 0x1, 0x0, 0x0, 0x0, 0x8, 0x0, 0x0, 0x0, 0xce, 0xdc, 0xff, 0xff, 0x0, 0x0, 0x0, 0x1, 0x14, 0x0, 0x0, 0x0, 0x1c, 0x0, 0x0, 0x0, 0x1c, 0x0, 0x0, 0x0, 0x5b, 0x0, 0x0, 0x0, 0x44, 0x0, 0x0, 0x0, 0x2, 0x0, 0x0, 0x0, 0xff, 0xff, 0xff, 0xff, 0x10, 0x0, 0x0, 0x0, 0x18, 0xdc, 0xff, 0xff, 0x2b, 0x0, 0x0, 0x0, 0x66, 0x75, 0x6e, 0x63, 0x74, 0x69, 0x6f, 0x6e, 0x61, 0x6c, 0x5f, 0x31, 0x2f, 0x6c, 0x73, 0x74, 0x6d, 0x5f, 0x6c, 0x61, 0x79, 0x65, 0x72, 0x5f, 0x31, 0x2f, 0x6c, 0x73, 0x74, 0x6d, 0x5f, 0x63, 0x65, 0x6c, 0x6c, 0x5f, 0x37, 0x2f, 0x6d, 0x75, 0x6c, 0x5f, 0x32, 0x0, 0x2, 0x0, 0x0, 0x0, 0x1, 0x0, 0x0, 0x0, 0x10, 0x0, 0x0, 0x0, 0x36, 0xdd, 0xff, 0xff, 0x0, 0x0, 0x0, 0x1, 0x14, 0x0, 0x0, 0x0, 0x1c, 0x0, 0x0, 0x0, 0x1c, 0x0, 0x0, 0x0, 0x5a, 0x0, 0x0, 0x0, 0x48, 0x0, 0x0, 0x0, 0x2, 0x0, 0x0, 0x0, 0xff, 0xff, 0xff, 0xff, 0x10, 0x0, 0x0, 0x0, 0x80, 0xdc, 0xff, 0xff, 0x2c, 0x0, 0x0, 0x0, 0x66, 0x75, 0x6e, 0x63, 0x74, 0x69, 0x6f, 0x6e, 0x61, 0x6c, 0x5f, 0x31, 0x2f, 0x6c, 0x73, 0x74, 0x6d, 0x5f, 0x6c, 0x61, 0x79, 0x65, 0x72, 0x5f, 0x31, 0x2f, 0x6c, 0x73, 0x74, 0x6d, 0x5f, 0x63, 0x65, 0x6c, 0x6c, 0x5f, 0x37, 0x2f, 0x54, 0x61, 0x6e, 0x68, 0x5f, 0x31, 0x0, 0x0, 0x0, 0x0, 0x2, 0x0, 0x0, 0x0, 0x1, 0x0, 0x0, 0x0, 0x10, 0x0, 0x0, 0x0, 0xa2, 0xdd, 0xff, 0xff, 0x0, 0x0, 0x0, 0x1, 0x14, 0x0, 0x0, 0x0, 0x1c, 0x0, 0x0, 0x0, 0x1c, 0x0, 0x0, 0x0, 0x59, 0x0, 0x0, 0x0, 0x44, 0x0, 0x0, 0x0, 0x2, 0x0, 0x0, 0x0, 0xff, 0xff, 0xff, 0xff, 0x10, 0x0, 0x0, 0x0, 0xec, 0xdc, 0xff, 0xff, 0x2b, 0x0, 0x0, 0x0, 0x66, 0x75, 0x6e, 0x63, 0x74, 0x69, 0x6f, 0x6e, 0x61, 0x6c, 0x5f, 0x31, 0x2f, 0x6c, 0x73, 0x74, 0x6d, 0x5f, 0x6c, 0x61, 0x79, 0x65, 0x72, 0x5f, 0x31, 0x2f, 0x6c, 0x73, 0x74, 0x6d, 0x5f, 0x63, 0x65, 0x6c, 0x6c, 0x5f, 0x37, 0x2f, 0x61, 0x64, 0x64, 0x5f, 0x32, 0x0, 0x2, 0x0, 0x0, 0x0, 0x1, 0x0, 0x0, 0x0, 0x10, 0x0, 0x0, 0x0, 0xa, 0xde, 0xff, 0xff, 0x0, 0x0, 0x0, 0x1, 0x14, 0x0, 0x0, 0x0, 0x1c, 0x0, 0x0, 0x0, 0x1c, 0x0, 0x0, 0x0, 0x58, 0x0, 0x0, 0x0, 0x44, 0x0, 0x0, 0x0, 0x2, 0x0, 0x0, 0x0, 0xff, 0xff, 0xff, 0xff, 0x10, 0x0, 0x0, 0x0, 0x54, 0xdd, 0xff, 0xff, 0x2b, 0x0, 0x0, 0x0, 0x66, 0x75, 0x6e, 0x63, 0x74, 0x69, 0x6f, 0x6e, 0x61, 0x6c, 0x5f, 0x31, 0x2f, 0x6c, 0x73, 0x74, 0x6d, 0x5f, 0x6c, 0x61, 0x79, 0x65, 0x72, 0x5f, 0x31, 0x2f, 0x6c, 0x73, 0x74, 0x6d, 0x5f, 0x63, 0x65, 0x6c, 0x6c, 0x5f, 0x37, 0x2f, 0x6d, 0x75, 0x6c, 0x5f, 0x31, 0x0, 0x2, 0x0, 0x0, 0x0, 0x1, 0x0, 0x0, 0x0, 0x10, 0x0, 0x0, 0x0, 0x72, 0xde, 0xff, 0xff, 0x0, 0x0, 0x0, 0x1, 0x14, 0x0, 0x0, 0x0, 0x1c, 0x0, 0x0, 0x0, 0x1c, 0x0, 0x0, 0x0, 0x57, 0x0, 0x0, 0x0, 0x44, 0x0, 0x0, 0x0, 0x2, 0x0, 0x0, 0x0, 0xff, 0xff, 0xff, 0xff, 0x10, 0x0, 0x0, 0x0, 0xbc, 0xdd, 0xff, 0xff, 0x2a, 0x0, 0x0, 0x0, 0x66, 0x75, 0x6e, 0x63, 0x74, 0x69, 0x6f, 0x6e, 0x61, 0x6c, 0x5f, 0x31, 0x2f, 0x6c, 0x73, 0x74, 0x6d, 0x5f, 0x6c, 0x61, 0x79, 0x65, 0x72, 0x5f, 0x31, 0x2f, 0x6c, 0x73, 0x74, 0x6d, 0x5f, 0x63, 0x65, 0x6c, 0x6c, 0x5f, 0x37, 0x2f, 0x54, 0x61, 0x6e, 0x68, 0x0, 0x0, 0x2, 0x0, 0x0, 0x0, 0x1, 0x0, 0x0, 0x0, 0x10, 0x0, 0x0, 0x0, 0xda, 0xde, 0xff, 0xff, 0x0, 0x0, 0x0, 0x1, 0x14, 0x0, 0x0, 0x0, 0x1c, 0x0, 0x0, 0x0, 0x1c, 0x0, 0x0, 0x0, 0x56, 0x0, 0x0, 0x0, 0x48, 0x0, 0x0, 0x0, 0x2, 0x0, 0x0, 0x0, 0xff, 0xff, 0xff, 0xff, 0x10, 0x0, 0x0, 0x0, 0x24, 0xde, 0xff, 0xff, 0x2f, 0x0, 0x0, 0x0, 0x66, 0x75, 0x6e, 0x63, 0x74, 0x69, 0x6f, 0x6e, 0x61, 0x6c, 0x5f, 0x31, 0x2f, 0x6c, 0x73, 0x74, 0x6d, 0x5f, 0x6c, 0x61, 0x79, 0x65, 0x72, 0x5f, 0x31, 0x2f, 0x6c, 0x73, 0x74, 0x6d, 0x5f, 0x63, 0x65, 0x6c, 0x6c, 0x5f, 0x37, 0x2f, 0x53, 0x69, 0x67, 0x6d, 0x6f, 0x69, 0x64, 0x5f, 0x32, 0x0, 0x2, 0x0, 0x0, 0x0, 0x1, 0x0, 0x0, 0x0, 0x10, 0x0, 0x0, 0x0, 0x46, 0xdf, 0xff, 0xff, 0x0, 0x0, 0x0, 0x1, 0x14, 0x0, 0x0, 0x0, 0x1c, 0x0, 0x0, 0x0, 0x1c, 0x0, 0x0, 0x0, 0x55, 0x0, 0x0, 0x0, 0x44, 0x0, 0x0, 0x0, 0x2, 0x0, 0x0, 0x0, 0xff, 0xff, 0xff, 0xff, 0x10, 0x0, 0x0, 0x0, 0x90, 0xde, 0xff, 0xff, 0x29, 0x0, 0x0, 0x0, 0x66, 0x75, 0x6e, 0x63, 0x74, 0x69, 0x6f, 0x6e, 0x61, 0x6c, 0x5f, 0x31, 0x2f, 0x6c, 0x73, 0x74, 0x6d, 0x5f, 0x6c, 0x61, 0x79, 0x65, 0x72, 0x5f, 0x31, 0x2f, 0x6c, 0x73, 0x74, 0x6d, 0x5f, 0x63, 0x65, 0x6c, 0x6c, 0x5f, 0x37, 0x2f, 0x6d, 0x75, 0x6c, 0x0, 0x0, 0x0, 0x2, 0x0, 0x0, 0x0, 0x1, 0x0, 0x0, 0x0, 0x10, 0x0, 0x0, 0x0, 0xae, 0xdf, 0xff, 0xff, 0x0, 0x0, 0x0, 0x1, 0x14, 0x0, 0x0, 0x0, 0x1c, 0x0, 0x0, 0x0, 0x1c, 0x0, 0x0, 0x0, 0x54, 0x0, 0x0, 0x0, 0x48, 0x0, 0x0, 0x0, 0x2, 0x0, 0x0, 0x0, 0xff, 0xff, 0xff, 0xff, 0x10, 0x0, 0x0, 0x0, 0xf8, 0xde, 0xff, 0xff, 0x2f, 0x0, 0x0, 0x0, 0x66, 0x75, 0x6e, 0x63, 0x74, 0x69, 0x6f, 0x6e, 0x61, 0x6c, 0x5f, 0x31, 0x2f, 0x6c, 0x73, 0x74, 0x6d, 0x5f, 0x6c, 0x61, 0x79, 0x65, 0x72, 0x5f, 0x31, 0x2f, 0x6c, 0x73, 0x74, 0x6d, 0x5f, 0x63, 0x65, 0x6c, 0x6c, 0x5f, 0x37, 0x2f, 0x53, 0x69, 0x67, 0x6d, 0x6f, 0x69, 0x64, 0x5f, 0x31, 0x0, 0x2, 0x0, 0x0, 0x0, 0x1, 0x0, 0x0, 0x0, 0x10, 0x0, 0x0, 0x0, 0x1a, 0xe0, 0xff, 0xff, 0x0, 0x0, 0x0, 0x1, 0x14, 0x0, 0x0, 0x0, 0x1c, 0x0, 0x0, 0x0, 0x1c, 0x0, 0x0, 0x0, 0x53, 0x0, 0x0, 0x0, 0x48, 0x0, 0x0, 0x0, 0x2, 0x0, 0x0, 0x0, 0xff, 0xff, 0xff, 0xff, 0x10, 0x0, 0x0, 0x0, 0x64, 0xdf, 0xff, 0xff, 0x2d, 0x0, 0x0, 0x0, 0x66, 0x75, 0x6e, 0x63, 0x74, 0x69, 0x6f, 0x6e, 0x61, 0x6c, 0x5f, 0x31, 0x2f, 0x6c, 0x73, 0x74, 0x6d, 0x5f, 0x6c, 0x61, 0x79, 0x65, 0x72, 0x5f, 0x31, 0x2f, 0x6c, 0x73, 0x74, 0x6d, 0x5f, 0x63, 0x65, 0x6c, 0x6c, 0x5f, 0x37, 0x2f, 0x53, 0x69, 0x67, 0x6d, 0x6f, 0x69, 0x64, 0x0, 0x0, 0x0, 0x2, 0x0, 0x0, 0x0, 0x1, 0x0, 0x0, 0x0, 0x10, 0x0, 0x0, 0x0, 0x86, 0xe0, 0xff, 0xff, 0x0, 0x0, 0x0, 0x1, 0x14, 0x0, 0x0, 0x0, 0x1c, 0x0, 0x0, 0x0, 0x1c, 0x0, 0x0, 0x0, 0x52, 0x0, 0x0, 0x0, 0x48, 0x0, 0x0, 0x0, 0x2, 0x0, 0x0, 0x0, 0xff, 0xff, 0xff, 0xff, 0x10, 0x0, 0x0, 0x0, 0xd0, 0xdf, 0xff, 0xff, 0x2c, 0x0, 0x0, 0x0, 0x66, 0x75, 0x6e, 0x63, 0x74, 0x69, 0x6f, 0x6e, 0x61, 0x6c, 0x5f, 0x31, 0x2f, 0x6c, 0x73, 0x74, 0x6d, 0x5f, 0x6c, 0x61, 0x79, 0x65, 0x72, 0x5f, 0x31, 0x2f, 0x6c, 0x73, 0x74, 0x6d, 0x5f, 0x63, 0x65, 0x6c, 0x6c, 0x5f, 0x37, 0x2f, 0x73, 0x70, 0x6c, 0x69, 0x74, 0x33, 0x0, 0x0, 0x0, 0x0, 0x2, 0x0, 0x0, 0x0, 0x1, 0x0, 0x0, 0x0, 0x10, 0x0, 0x0, 0x0, 0xf2, 0xe0, 0xff, 0xff, 0x0, 0x0, 0x0, 0x1, 0x14, 0x0, 0x0, 0x0, 0x1c, 0x0, 0x0, 0x0, 0x1c, 0x0, 0x0, 0x0, 0x51, 0x0, 0x0, 0x0, 0x48, 0x0, 0x0, 0x0, 0x2, 0x0, 0x0, 0x0, 0xff, 0xff, 0xff, 0xff, 0x10, 0x0, 0x0, 0x0, 0x3c, 0xe0, 0xff, 0xff, 0x2c, 0x0, 0x0, 0x0, 0x66, 0x75, 0x6e, 0x63, 0x74, 0x69, 0x6f, 0x6e, 0x61, 0x6c, 0x5f, 0x31, 0x2f, 0x6c, 0x73, 0x74, 0x6d, 0x5f, 0x6c, 0x61, 0x79, 0x65, 0x72, 0x5f, 0x31, 0x2f, 0x6c, 0x73, 0x74, 0x6d, 0x5f, 0x63, 0x65, 0x6c, 0x6c, 0x5f, 0x37, 0x2f, 0x73, 0x70, 0x6c, 0x69, 0x74, 0x32, 0x0, 0x0, 0x0, 0x0, 0x2, 0x0, 0x0, 0x0, 0x1, 0x0, 0x0, 0x0, 0x10, 0x0, 0x0, 0x0, 0x5e, 0xe1, 0xff, 0xff, 0x0, 0x0, 0x0, 0x1, 0x14, 0x0, 0x0, 0x0, 0x1c, 0x0, 0x0, 0x0, 0x1c, 0x0, 0x0, 0x0, 0x50, 0x0, 0x0, 0x0, 0x48, 0x0, 0x0, 0x0, 0x2, 0x0, 0x0, 0x0, 0xff, 0xff, 0xff, 0xff, 0x10, 0x0, 0x0, 0x0, 0xa8, 0xe0, 0xff, 0xff, 0x2c, 0x0, 0x0, 0x0, 0x66, 0x75, 0x6e, 0x63, 0x74, 0x69, 0x6f, 0x6e, 0x61, 0x6c, 0x5f, 0x31, 0x2f, 0x6c, 0x73, 0x74, 0x6d, 0x5f, 0x6c, 0x61, 0x79, 0x65, 0x72, 0x5f, 0x31, 0x2f, 0x6c, 0x73, 0x74, 0x6d, 0x5f, 0x63, 0x65, 0x6c, 0x6c, 0x5f, 0x37, 0x2f, 0x73, 0x70, 0x6c, 0x69, 0x74, 0x31, 0x0, 0x0, 0x0, 0x0, 0x2, 0x0, 0x0, 0x0, 0x1, 0x0, 0x0, 0x0, 0x10, 0x0, 0x0, 0x0, 0xca, 0xe1, 0xff, 0xff, 0x0, 0x0, 0x0, 0x1, 0x14, 0x0, 0x0, 0x0, 0x1c, 0x0, 0x0, 0x0, 0x1c, 0x0, 0x0, 0x0, 0x4f, 0x0, 0x0, 0x0, 0x44, 0x0, 0x0, 0x0, 0x2, 0x0, 0x0, 0x0, 0xff, 0xff, 0xff, 0xff, 0x10, 0x0, 0x0, 0x0, 0x14, 0xe1, 0xff, 0xff, 0x2b, 0x0, 0x0, 0x0, 0x66, 0x75, 0x6e, 0x63, 0x74, 0x69, 0x6f, 0x6e, 0x61, 0x6c, 0x5f, 0x31, 0x2f, 0x6c, 0x73, 0x74, 0x6d, 0x5f, 0x6c, 0x61, 0x79, 0x65, 0x72, 0x5f, 0x31, 0x2f, 0x6c, 0x73, 0x74, 0x6d, 0x5f, 0x63, 0x65, 0x6c, 0x6c, 0x5f, 0x37, 0x2f, 0x73, 0x70, 0x6c, 0x69, 0x74, 0x0, 0x2, 0x0, 0x0, 0x0, 0x1, 0x0, 0x0, 0x0, 0x10, 0x0, 0x0, 0x0, 0x32, 0xe2, 0xff, 0xff, 0x0, 0x0, 0x0, 0x1, 0x14, 0x0, 0x0, 0x0, 0x1c, 0x0, 0x0, 0x0, 0x1c, 0x0, 0x0, 0x0, 0x4e, 0x0, 0x0, 0x0, 0x44, 0x0, 0x0, 0x0, 0x2, 0x0, 0x0, 0x0, 0xff, 0xff, 0xff, 0xff, 0x40, 0x0, 0x0, 0x0, 0x7c, 0xe1, 0xff, 0xff, 0x2b, 0x0, 0x0, 0x0, 0x66, 0x75, 0x6e, 0x63, 0x74, 0x69, 0x6f, 0x6e, 0x61, 0x6c, 0x5f, 0x31, 0x2f, 0x6c, 0x73, 0x74, 0x6d, 0x5f, 0x6c, 0x61, 0x79, 0x65, 0x72, 0x5f, 0x31, 0x2f, 0x6c, 0x73, 0x74, 0x6d, 0x5f, 0x63, 0x65, 0x6c, 0x6c, 0x5f, 0x37, 0x2f, 0x61, 0x64, 0x64, 0x5f, 0x31, 0x0, 0x2, 0x0, 0x0, 0x0, 0x1, 0x0, 0x0, 0x0, 0x40, 0x0, 0x0, 0x0, 0x9a, 0xe2, 0xff, 0xff, 0x0, 0x0, 0x0, 0x1, 0x14, 0x0, 0x0, 0x0, 0x1c, 0x0, 0x0, 0x0, 0x1c, 0x0, 0x0, 0x0, 0x4d, 0x0, 0x0, 0x0, 0x44, 0x0, 0x0, 0x0, 0x2, 0x0, 0x0, 0x0, 0xff, 0xff, 0xff, 0xff, 0x40, 0x0, 0x0, 0x0, 0xe4, 0xe1, 0xff, 0xff, 0x29, 0x0, 0x0, 0x0, 0x66, 0x75, 0x6e, 0x63, 0x74, 0x69, 0x6f, 0x6e, 0x61, 0x6c, 0x5f, 0x31, 0x2f, 0x6c, 0x73, 0x74, 0x6d, 0x5f, 0x6c, 0x61, 0x79, 0x65, 0x72, 0x5f, 0x31, 0x2f, 0x6c, 0x73, 0x74, 0x6d, 0x5f, 0x63, 0x65, 0x6c, 0x6c, 0x5f, 0x37, 0x2f, 0x61, 0x64, 0x64, 0x0, 0x0, 0x0, 0x2, 0x0, 0x0, 0x0, 0x1, 0x0, 0x0, 0x0, 0x40, 0x0, 0x0, 0x0, 0x2, 0xe3, 0xff, 0xff, 0x0, 0x0, 0x0, 0x1, 0x14, 0x0, 0x0, 0x0, 0x1c, 0x0, 0x0, 0x0, 0x1c, 0x0, 0x0, 0x0, 0x4c, 0x0, 0x0, 0x0, 0x48, 0x0, 0x0, 0x0, 0x2, 0x0, 0x0, 0x0, 0xff, 0xff, 0xff, 0xff, 0x40, 0x0, 0x0, 0x0, 0x4c, 0xe2, 0xff, 0xff, 0x2c, 0x0, 0x0, 0x0, 0x66, 0x75, 0x6e, 0x63, 0x74, 0x69, 0x6f, 0x6e, 0x61, 0x6c, 0x5f, 0x31, 0x2f, 0x6c, 0x73, 0x74, 0x6d, 0x5f, 0x6c, 0x61, 0x79, 0x65, 0x72, 0x5f, 0x31, 0x2f, 0x6c, 0x73, 0x74, 0x6d, 0x5f, 0x63, 0x65, 0x6c, 0x6c, 0x5f, 0x37, 0x2f, 0x4d, 0x61, 0x74, 0x4d, 0x75, 0x6c, 0x0, 0x0, 0x0, 0x0, 0x2, 0x0, 0x0, 0x0, 0x1, 0x0, 0x0, 0x0, 0x40, 0x0, 0x0, 0x0, 0x6e, 0xe3, 0xff, 0xff, 0x0, 0x0, 0x0, 0x1, 0x14, 0x0, 0x0, 0x0, 0x1c, 0x0, 0x0, 0x0, 0x1c, 0x0, 0x0, 0x0, 0x4b, 0x0, 0x0, 0x0, 0x48, 0x0, 0x0, 0x0, 0x2, 0x0, 0x0, 0x0, 0xff, 0xff, 0xff, 0xff, 0x40, 0x0, 0x0, 0x0, 0xb8, 0xe2, 0xff, 0xff, 0x2e, 0x0, 0x0, 0x0, 0x66, 0x75, 0x6e, 0x63, 0x74, 0x69, 0x6f, 0x6e, 0x61, 0x6c, 0x5f, 0x31, 0x2f, 0x6c, 0x73, 0x74, 0x6d, 0x5f, 0x6c, 0x61, 0x79, 0x65, 0x72, 0x5f, 0x31, 0x2f, 0x6c, 0x73, 0x74, 0x6d, 0x5f, 0x63, 0x65, 0x6c, 0x6c, 0x5f, 0x37, 0x2f, 0x4d, 0x61, 0x74, 0x4d, 0x75, 0x6c, 0x5f, 0x31, 0x0, 0x0, 0x2, 0x0, 0x0, 0x0, 0x1, 0x0, 0x0, 0x0, 0x40, 0x0, 0x0, 0x0, 0xda, 0xe3, 0xff, 0xff, 0x0, 0x0, 0x0, 0x1, 0x14, 0x0, 0x0, 0x0, 0x1c, 0x0, 0x0, 0x0, 0x1c, 0x0, 0x0, 0x0, 0x4a, 0x0, 0x0, 0x0, 0x44, 0x0, 0x0, 0x0, 0x2, 0x0, 0x0, 0x0, 0xff, 0xff, 0xff, 0xff, 0x10, 0x0, 0x0, 0x0, 0x24, 0xe3, 0xff, 0xff, 0x2b, 0x0, 0x0, 0x0, 0x66, 0x75, 0x6e, 0x63, 0x74, 0x69, 0x6f, 0x6e, 0x61, 0x6c, 0x5f, 0x31, 0x2f, 0x6c, 0x73, 0x74, 0x6d, 0x5f, 0x6c, 0x61, 0x79, 0x65, 0x72, 0x5f, 0x31, 0x2f, 0x6c, 0x73, 0x74, 0x6d, 0x5f, 0x63, 0x65, 0x6c, 0x6c, 0x5f, 0x35, 0x2f, 0x6d, 0x75, 0x6c, 0x5f, 0x32, 0x0, 0x2, 0x0, 0x0, 0x0, 0x1, 0x0, 0x0, 0x0, 0x10, 0x0, 0x0, 0x0, 0x42, 0xe4, 0xff, 0xff, 0x0, 0x0, 0x0, 0x1, 0x14, 0x0, 0x0, 0x0, 0x1c, 0x0, 0x0, 0x0, 0x1c, 0x0, 0x0, 0x0, 0x49, 0x0, 0x0, 0x0, 0x48, 0x0, 0x0, 0x0, 0x2, 0x0, 0x0, 0x0, 0xff, 0xff, 0xff, 0xff, 0x10, 0x0, 0x0, 0x0, 0x8c, 0xe3, 0xff, 0xff, 0x2c, 0x0, 0x0, 0x0, 0x66, 0x75, 0x6e, 0x63, 0x74, 0x69, 0x6f, 0x6e, 0x61, 0x6c, 0x5f, 0x31, 0x2f, 0x6c, 0x73, 0x74, 0x6d, 0x5f, 0x6c, 0x61, 0x79, 0x65, 0x72, 0x5f, 0x31, 0x2f, 0x6c, 0x73, 0x74, 0x6d, 0x5f, 0x63, 0x65, 0x6c, 0x6c, 0x5f, 0x35, 0x2f, 0x54, 0x61, 0x6e, 0x68, 0x5f, 0x31, 0x0, 0x0, 0x0, 0x0, 0x2, 0x0, 0x0, 0x0, 0x1, 0x0, 0x0, 0x0, 0x10, 0x0, 0x0, 0x0, 0xae, 0xe4, 0xff, 0xff, 0x0, 0x0, 0x0, 0x1, 0x14, 0x0, 0x0, 0x0, 0x1c, 0x0, 0x0, 0x0, 0x1c, 0x0, 0x0, 0x0, 0x48, 0x0, 0x0, 0x0, 0x44, 0x0, 0x0, 0x0, 0x2, 0x0, 0x0, 0x0, 0xff, 0xff, 0xff, 0xff, 0x10, 0x0, 0x0, 0x0, 0xf8, 0xe3, 0xff, 0xff, 0x2b, 0x0, 0x0, 0x0, 0x66, 0x75, 0x6e, 0x63, 0x74, 0x69, 0x6f, 0x6e, 0x61, 0x6c, 0x5f, 0x31, 0x2f, 0x6c, 0x73, 0x74, 0x6d, 0x5f, 0x6c, 0x61, 0x79, 0x65, 0x72, 0x5f, 0x31, 0x2f, 0x6c, 0x73, 0x74, 0x6d, 0x5f, 0x63, 0x65, 0x6c, 0x6c, 0x5f, 0x35, 0x2f, 0x61, 0x64, 0x64, 0x5f, 0x32, 0x0, 0x2, 0x0, 0x0, 0x0, 0x1, 0x0, 0x0, 0x0, 0x10, 0x0, 0x0, 0x0, 0x16, 0xe5, 0xff, 0xff, 0x0, 0x0, 0x0, 0x1, 0x14, 0x0, 0x0, 0x0, 0x1c, 0x0, 0x0, 0x0, 0x1c, 0x0, 0x0, 0x0, 0x47, 0x0, 0x0, 0x0, 0x44, 0x0, 0x0, 0x0, 0x2, 0x0, 0x0, 0x0, 0xff, 0xff, 0xff, 0xff, 0x10, 0x0, 0x0, 0x0, 0x60, 0xe4, 0xff, 0xff, 0x2b, 0x0, 0x0, 0x0, 0x66, 0x75, 0x6e, 0x63, 0x74, 0x69, 0x6f, 0x6e, 0x61, 0x6c, 0x5f, 0x31, 0x2f, 0x6c, 0x73, 0x74, 0x6d, 0x5f, 0x6c, 0x61, 0x79, 0x65, 0x72, 0x5f, 0x31, 0x2f, 0x6c, 0x73, 0x74, 0x6d, 0x5f, 0x63, 0x65, 0x6c, 0x6c, 0x5f, 0x35, 0x2f, 0x6d, 0x75, 0x6c, 0x5f, 0x31, 0x0, 0x2, 0x0, 0x0, 0x0, 0x1, 0x0, 0x0, 0x0, 0x10, 0x0, 0x0, 0x0, 0x7e, 0xe5, 0xff, 0xff, 0x0, 0x0, 0x0, 0x1, 0x14, 0x0, 0x0, 0x0, 0x1c, 0x0, 0x0, 0x0, 0x1c, 0x0, 0x0, 0x0, 0x46, 0x0, 0x0, 0x0, 0x44, 0x0, 0x0, 0x0, 0x2, 0x0, 0x0, 0x0, 0xff, 0xff, 0xff, 0xff, 0x10, 0x0, 0x0, 0x0, 0xc8, 0xe4, 0xff, 0xff, 0x2a, 0x0, 0x0, 0x0, 0x66, 0x75, 0x6e, 0x63, 0x74, 0x69, 0x6f, 0x6e, 0x61, 0x6c, 0x5f, 0x31, 0x2f, 0x6c, 0x73, 0x74, 0x6d, 0x5f, 0x6c, 0x61, 0x79, 0x65, 0x72, 0x5f, 0x31, 0x2f, 0x6c, 0x73, 0x74, 0x6d, 0x5f, 0x63, 0x65, 0x6c, 0x6c, 0x5f, 0x35, 0x2f, 0x54, 0x61, 0x6e, 0x68, 0x0, 0x0, 0x2, 0x0, 0x0, 0x0, 0x1, 0x0, 0x0, 0x0, 0x10, 0x0, 0x0, 0x0, 0xe6, 0xe5, 0xff, 0xff, 0x0, 0x0, 0x0, 0x1, 0x14, 0x0, 0x0, 0x0, 0x1c, 0x0, 0x0, 0x0, 0x1c, 0x0, 0x0, 0x0, 0x45, 0x0, 0x0, 0x0, 0x48, 0x0, 0x0, 0x0, 0x2, 0x0, 0x0, 0x0, 0xff, 0xff, 0xff, 0xff, 0x10, 0x0, 0x0, 0x0, 0x30, 0xe5, 0xff, 0xff, 0x2f, 0x0, 0x0, 0x0, 0x66, 0x75, 0x6e, 0x63, 0x74, 0x69, 0x6f, 0x6e, 0x61, 0x6c, 0x5f, 0x31, 0x2f, 0x6c, 0x73, 0x74, 0x6d, 0x5f, 0x6c, 0x61, 0x79, 0x65, 0x72, 0x5f, 0x31, 0x2f, 0x6c, 0x73, 0x74, 0x6d, 0x5f, 0x63, 0x65, 0x6c, 0x6c, 0x5f, 0x35, 0x2f, 0x53, 0x69, 0x67, 0x6d, 0x6f, 0x69, 0x64, 0x5f, 0x32, 0x0, 0x2, 0x0, 0x0, 0x0, 0x1, 0x0, 0x0, 0x0, 0x10, 0x0, 0x0, 0x0, 0x52, 0xe6, 0xff, 0xff, 0x0, 0x0, 0x0, 0x1, 0x14, 0x0, 0x0, 0x0, 0x1c, 0x0, 0x0, 0x0, 0x1c, 0x0, 0x0, 0x0, 0x44, 0x0, 0x0, 0x0, 0x44, 0x0, 0x0, 0x0, 0x2, 0x0, 0x0, 0x0, 0xff, 0xff, 0xff, 0xff, 0x10, 0x0, 0x0, 0x0, 0x9c, 0xe5, 0xff, 0xff, 0x29, 0x0, 0x0, 0x0, 0x66, 0x75, 0x6e, 0x63, 0x74, 0x69, 0x6f, 0x6e, 0x61, 0x6c, 0x5f, 0x31, 0x2f, 0x6c, 0x73, 0x74, 0x6d, 0x5f, 0x6c, 0x61, 0x79, 0x65, 0x72, 0x5f, 0x31, 0x2f, 0x6c, 0x73, 0x74, 0x6d, 0x5f, 0x63, 0x65, 0x6c, 0x6c, 0x5f, 0x35, 0x2f, 0x6d, 0x75, 0x6c, 0x0, 0x0, 0x0, 0x2, 0x0, 0x0, 0x0, 0x1, 0x0, 0x0, 0x0, 0x10, 0x0, 0x0, 0x0, 0xba, 0xe6, 0xff, 0xff, 0x0, 0x0, 0x0, 0x1, 0x14, 0x0, 0x0, 0x0, 0x1c, 0x0, 0x0, 0x0, 0x1c, 0x0, 0x0, 0x0, 0x43, 0x0, 0x0, 0x0, 0x48, 0x0, 0x0, 0x0, 0x2, 0x0, 0x0, 0x0, 0xff, 0xff, 0xff, 0xff, 0x10, 0x0, 0x0, 0x0, 0x4, 0xe6, 0xff, 0xff, 0x2f, 0x0, 0x0, 0x0, 0x66, 0x75, 0x6e, 0x63, 0x74, 0x69, 0x6f, 0x6e, 0x61, 0x6c, 0x5f, 0x31, 0x2f, 0x6c, 0x73, 0x74, 0x6d, 0x5f, 0x6c, 0x61, 0x79, 0x65, 0x72, 0x5f, 0x31, 0x2f, 0x6c, 0x73, 0x74, 0x6d, 0x5f, 0x63, 0x65, 0x6c, 0x6c, 0x5f, 0x35, 0x2f, 0x53, 0x69, 0x67, 0x6d, 0x6f, 0x69, 0x64, 0x5f, 0x31, 0x0, 0x2, 0x0, 0x0, 0x0, 0x1, 0x0, 0x0, 0x0, 0x10, 0x0, 0x0, 0x0, 0x26, 0xe7, 0xff, 0xff, 0x0, 0x0, 0x0, 0x1, 0x14, 0x0, 0x0, 0x0, 0x1c, 0x0, 0x0, 0x0, 0x1c, 0x0, 0x0, 0x0, 0x42, 0x0, 0x0, 0x0, 0x48, 0x0, 0x0, 0x0, 0x2, 0x0, 0x0, 0x0, 0xff, 0xff, 0xff, 0xff, 0x10, 0x0, 0x0, 0x0, 0x70, 0xe6, 0xff, 0xff, 0x2d, 0x0, 0x0, 0x0, 0x66, 0x75, 0x6e, 0x63, 0x74, 0x69, 0x6f, 0x6e, 0x61, 0x6c, 0x5f, 0x31, 0x2f, 0x6c, 0x73, 0x74, 0x6d, 0x5f, 0x6c, 0x61, 0x79, 0x65, 0x72, 0x5f, 0x31, 0x2f, 0x6c, 0x73, 0x74, 0x6d, 0x5f, 0x63, 0x65, 0x6c, 0x6c, 0x5f, 0x35, 0x2f, 0x53, 0x69, 0x67, 0x6d, 0x6f, 0x69, 0x64, 0x0, 0x0, 0x0, 0x2, 0x0, 0x0, 0x0, 0x1, 0x0, 0x0, 0x0, 0x10, 0x0, 0x0, 0x0, 0x92, 0xe7, 0xff, 0xff, 0x0, 0x0, 0x0, 0x1, 0x14, 0x0, 0x0, 0x0, 0x1c, 0x0, 0x0, 0x0, 0x1c, 0x0, 0x0, 0x0, 0x41, 0x0, 0x0, 0x0, 0x48, 0x0, 0x0, 0x0, 0x2, 0x0, 0x0, 0x0, 0xff, 0xff, 0xff, 0xff, 0x10, 0x0, 0x0, 0x0, 0xdc, 0xe6, 0xff, 0xff, 0x2c, 0x0, 0x0, 0x0, 0x66, 0x75, 0x6e, 0x63, 0x74, 0x69, 0x6f, 0x6e, 0x61, 0x6c, 0x5f, 0x31, 0x2f, 0x6c, 0x73, 0x74, 0x6d, 0x5f, 0x6c, 0x61, 0x79, 0x65, 0x72, 0x5f, 0x31, 0x2f, 0x6c, 0x73, 0x74, 0x6d, 0x5f, 0x63, 0x65, 0x6c, 0x6c, 0x5f, 0x35, 0x2f, 0x73, 0x70, 0x6c, 0x69, 0x74, 0x33, 0x0, 0x0, 0x0, 0x0, 0x2, 0x0, 0x0, 0x0, 0x1, 0x0, 0x0, 0x0, 0x10, 0x0, 0x0, 0x0, 0xfe, 0xe7, 0xff, 0xff, 0x0, 0x0, 0x0, 0x1, 0x14, 0x0, 0x0, 0x0, 0x1c, 0x0, 0x0, 0x0, 0x1c, 0x0, 0x0, 0x0, 0x40, 0x0, 0x0, 0x0, 0x48, 0x0, 0x0, 0x0, 0x2, 0x0, 0x0, 0x0, 0xff, 0xff, 0xff, 0xff, 0x10, 0x0, 0x0, 0x0, 0x48, 0xe7, 0xff, 0xff, 0x2c, 0x0, 0x0, 0x0, 0x66, 0x75, 0x6e, 0x63, 0x74, 0x69, 0x6f, 0x6e, 0x61, 0x6c, 0x5f, 0x31, 0x2f, 0x6c, 0x73, 0x74, 0x6d, 0x5f, 0x6c, 0x61, 0x79, 0x65, 0x72, 0x5f, 0x31, 0x2f, 0x6c, 0x73, 0x74, 0x6d, 0x5f, 0x63, 0x65, 0x6c, 0x6c, 0x5f, 0x35, 0x2f, 0x73, 0x70, 0x6c, 0x69, 0x74, 0x32, 0x0, 0x0, 0x0, 0x0, 0x2, 0x0, 0x0, 0x0, 0x1, 0x0, 0x0, 0x0, 0x10, 0x0, 0x0, 0x0, 0x6a, 0xe8, 0xff, 0xff, 0x0, 0x0, 0x0, 0x1, 0x14, 0x0, 0x0, 0x0, 0x1c, 0x0, 0x0, 0x0, 0x1c, 0x0, 0x0, 0x0, 0x3f, 0x0, 0x0, 0x0, 0x48, 0x0, 0x0, 0x0, 0x2, 0x0, 0x0, 0x0, 0xff, 0xff, 0xff, 0xff, 0x10, 0x0, 0x0, 0x0, 0xb4, 0xe7, 0xff, 0xff, 0x2c, 0x0, 0x0, 0x0, 0x66, 0x75, 0x6e, 0x63, 0x74, 0x69, 0x6f, 0x6e, 0x61, 0x6c, 0x5f, 0x31, 0x2f, 0x6c, 0x73, 0x74, 0x6d, 0x5f, 0x6c, 0x61, 0x79, 0x65, 0x72, 0x5f, 0x31, 0x2f, 0x6c, 0x73, 0x74, 0x6d, 0x5f, 0x63, 0x65, 0x6c, 0x6c, 0x5f, 0x35, 0x2f, 0x73, 0x70, 0x6c, 0x69, 0x74, 0x31, 0x0, 0x0, 0x0, 0x0, 0x2, 0x0, 0x0, 0x0, 0x1, 0x0, 0x0, 0x0, 0x10, 0x0, 0x0, 0x0, 0xd6, 0xe8, 0xff, 0xff, 0x0, 0x0, 0x0, 0x1, 0x14, 0x0, 0x0, 0x0, 0x1c, 0x0, 0x0, 0x0, 0x1c, 0x0, 0x0, 0x0, 0x3e, 0x0, 0x0, 0x0, 0x44, 0x0, 0x0, 0x0, 0x2, 0x0, 0x0, 0x0, 0xff, 0xff, 0xff, 0xff, 0x10, 0x0, 0x0, 0x0, 0x20, 0xe8, 0xff, 0xff, 0x2b, 0x0, 0x0, 0x0, 0x66, 0x75, 0x6e, 0x63, 0x74, 0x69, 0x6f, 0x6e, 0x61, 0x6c, 0x5f, 0x31, 0x2f, 0x6c, 0x73, 0x74, 0x6d, 0x5f, 0x6c, 0x61, 0x79, 0x65, 0x72, 0x5f, 0x31, 0x2f, 0x6c, 0x73, 0x74, 0x6d, 0x5f, 0x63, 0x65, 0x6c, 0x6c, 0x5f, 0x35, 0x2f, 0x73, 0x70, 0x6c, 0x69, 0x74, 0x0, 0x2, 0x0, 0x0, 0x0, 0x1, 0x0, 0x0, 0x0, 0x10, 0x0, 0x0, 0x0, 0x3e, 0xe9, 0xff, 0xff, 0x0, 0x0, 0x0, 0x1, 0x14, 0x0, 0x0, 0x0, 0x1c, 0x0, 0x0, 0x0, 0x1c, 0x0, 0x0, 0x0, 0x3d, 0x0, 0x0, 0x0, 0x44, 0x0, 0x0, 0x0, 0x2, 0x0, 0x0, 0x0, 0xff, 0xff, 0xff, 0xff, 0x40, 0x0, 0x0, 0x0, 0x88, 0xe8, 0xff, 0xff, 0x2b, 0x0, 0x0, 0x0, 0x66, 0x75, 0x6e, 0x63, 0x74, 0x69, 0x6f, 0x6e, 0x61, 0x6c, 0x5f, 0x31, 0x2f, 0x6c, 0x73, 0x74, 0x6d, 0x5f, 0x6c, 0x61, 0x79, 0x65, 0x72, 0x5f, 0x31, 0x2f, 0x6c, 0x73, 0x74, 0x6d, 0x5f, 0x63, 0x65, 0x6c, 0x6c, 0x5f, 0x35, 0x2f, 0x61, 0x64, 0x64, 0x5f, 0x31, 0x0, 0x2, 0x0, 0x0, 0x0, 0x1, 0x0, 0x0, 0x0, 0x40, 0x0, 0x0, 0x0, 0xa6, 0xe9, 0xff, 0xff, 0x0, 0x0, 0x0, 0x1, 0x14, 0x0, 0x0, 0x0, 0x1c, 0x0, 0x0, 0x0, 0x1c, 0x0, 0x0, 0x0, 0x3c, 0x0, 0x0, 0x0, 0x44, 0x0, 0x0, 0x0, 0x2, 0x0, 0x0, 0x0, 0xff, 0xff, 0xff, 0xff, 0x40, 0x0, 0x0, 0x0, 0xf0, 0xe8, 0xff, 0xff, 0x29, 0x0, 0x0, 0x0, 0x66, 0x75, 0x6e, 0x63, 0x74, 0x69, 0x6f, 0x6e, 0x61, 0x6c, 0x5f, 0x31, 0x2f, 0x6c, 0x73, 0x74, 0x6d, 0x5f, 0x6c, 0x61, 0x79, 0x65, 0x72, 0x5f, 0x31, 0x2f, 0x6c, 0x73, 0x74, 0x6d, 0x5f, 0x63, 0x65, 0x6c, 0x6c, 0x5f, 0x35, 0x2f, 0x61, 0x64, 0x64, 0x0, 0x0, 0x0, 0x2, 0x0, 0x0, 0x0, 0x1, 0x0, 0x0, 0x0, 0x40, 0x0, 0x0, 0x0, 0xe, 0xea, 0xff, 0xff, 0x0, 0x0, 0x0, 0x1, 0x14, 0x0, 0x0, 0x0, 0x1c, 0x0, 0x0, 0x0, 0x1c, 0x0, 0x0, 0x0, 0x3b, 0x0, 0x0, 0x0, 0x48, 0x0, 0x0, 0x0, 0x2, 0x0, 0x0, 0x0, 0xff, 0xff, 0xff, 0xff, 0x40, 0x0, 0x0, 0x0, 0x58, 0xe9, 0xff, 0xff, 0x2c, 0x0, 0x0, 0x0, 0x66, 0x75, 0x6e, 0x63, 0x74, 0x69, 0x6f, 0x6e, 0x61, 0x6c, 0x5f, 0x31, 0x2f, 0x6c, 0x73, 0x74, 0x6d, 0x5f, 0x6c, 0x61, 0x79, 0x65, 0x72, 0x5f, 0x31, 0x2f, 0x6c, 0x73, 0x74, 0x6d, 0x5f, 0x63, 0x65, 0x6c, 0x6c, 0x5f, 0x35, 0x2f, 0x4d, 0x61, 0x74, 0x4d, 0x75, 0x6c, 0x0, 0x0, 0x0, 0x0, 0x2, 0x0, 0x0, 0x0, 0x1, 0x0, 0x0, 0x0, 0x40, 0x0, 0x0, 0x0, 0x7a, 0xea, 0xff, 0xff, 0x0, 0x0, 0x0, 0x1, 0x14, 0x0, 0x0, 0x0, 0x1c, 0x0, 0x0, 0x0, 0x1c, 0x0, 0x0, 0x0, 0x3a, 0x0, 0x0, 0x0, 0x48, 0x0, 0x0, 0x0, 0x2, 0x0, 0x0, 0x0, 0xff, 0xff, 0xff, 0xff, 0x40, 0x0, 0x0, 0x0, 0xc4, 0xe9, 0xff, 0xff, 0x2e, 0x0, 0x0, 0x0, 0x66, 0x75, 0x6e, 0x63, 0x74, 0x69, 0x6f, 0x6e, 0x61, 0x6c, 0x5f, 0x31, 0x2f, 0x6c, 0x73, 0x74, 0x6d, 0x5f, 0x6c, 0x61, 0x79, 0x65, 0x72, 0x5f, 0x31, 0x2f, 0x6c, 0x73, 0x74, 0x6d, 0x5f, 0x63, 0x65, 0x6c, 0x6c, 0x5f, 0x35, 0x2f, 0x4d, 0x61, 0x74, 0x4d, 0x75, 0x6c, 0x5f, 0x31, 0x0, 0x0, 0x2, 0x0, 0x0, 0x0, 0x1, 0x0, 0x0, 0x0, 0x40, 0x0, 0x0, 0x0, 0xe6, 0xea, 0xff, 0xff, 0x0, 0x0, 0x0, 0x1, 0x14, 0x0, 0x0, 0x0, 0x1c, 0x0, 0x0, 0x0, 0x1c, 0x0, 0x0, 0x0, 0x39, 0x0, 0x0, 0x0, 0x44, 0x0, 0x0, 0x0, 0x2, 0x0, 0x0, 0x0, 0xff, 0xff, 0xff, 0xff, 0x10, 0x0, 0x0, 0x0, 0x30, 0xea, 0xff, 0xff, 0x2b, 0x0, 0x0, 0x0, 0x66, 0x75, 0x6e, 0x63, 0x74, 0x69, 0x6f, 0x6e, 0x61, 0x6c, 0x5f, 0x31, 0x2f, 0x6c, 0x73, 0x74, 0x6d, 0x5f, 0x6c, 0x61, 0x79, 0x65, 0x72, 0x5f, 0x31, 0x2f, 0x6c, 0x73, 0x74, 0x6d, 0x5f, 0x63, 0x65, 0x6c, 0x6c, 0x5f, 0x33, 0x2f, 0x6d, 0x75, 0x6c, 0x5f, 0x32, 0x0, 0x2, 0x0, 0x0, 0x0, 0x1, 0x0, 0x0, 0x0, 0x10, 0x0, 0x0, 0x0, 0x4e, 0xeb, 0xff, 0xff, 0x0, 0x0, 0x0, 0x1, 0x14, 0x0, 0x0, 0x0, 0x1c, 0x0, 0x0, 0x0, 0x1c, 0x0, 0x0, 0x0, 0x38, 0x0, 0x0, 0x0, 0x48, 0x0, 0x0, 0x0, 0x2, 0x0, 0x0, 0x0, 0xff, 0xff, 0xff, 0xff, 0x10, 0x0, 0x0, 0x0, 0x98, 0xea, 0xff, 0xff, 0x2c, 0x0, 0x0, 0x0, 0x66, 0x75, 0x6e, 0x63, 0x74, 0x69, 0x6f, 0x6e, 0x61, 0x6c, 0x5f, 0x31, 0x2f, 0x6c, 0x73, 0x74, 0x6d, 0x5f, 0x6c, 0x61, 0x79, 0x65, 0x72, 0x5f, 0x31, 0x2f, 0x6c, 0x73, 0x74, 0x6d, 0x5f, 0x63, 0x65, 0x6c, 0x6c, 0x5f, 0x33, 0x2f, 0x54, 0x61, 0x6e, 0x68, 0x5f, 0x31, 0x0, 0x0, 0x0, 0x0, 0x2, 0x0, 0x0, 0x0, 0x1, 0x0, 0x0, 0x0, 0x10, 0x0, 0x0, 0x0, 0xba, 0xeb, 0xff, 0xff, 0x0, 0x0, 0x0, 0x1, 0x14, 0x0, 0x0, 0x0, 0x1c, 0x0, 0x0, 0x0, 0x1c, 0x0, 0x0, 0x0, 0x37, 0x0, 0x0, 0x0, 0x44, 0x0, 0x0, 0x0, 0x2, 0x0, 0x0, 0x0, 0xff, 0xff, 0xff, 0xff, 0x10, 0x0, 0x0, 0x0, 0x4, 0xeb, 0xff, 0xff, 0x2b, 0x0, 0x0, 0x0, 0x66, 0x75, 0x6e, 0x63, 0x74, 0x69, 0x6f, 0x6e, 0x61, 0x6c, 0x5f, 0x31, 0x2f, 0x6c, 0x73, 0x74, 0x6d, 0x5f, 0x6c, 0x61, 0x79, 0x65, 0x72, 0x5f, 0x31, 0x2f, 0x6c, 0x73, 0x74, 0x6d, 0x5f, 0x63, 0x65, 0x6c, 0x6c, 0x5f, 0x33, 0x2f, 0x61, 0x64, 0x64, 0x5f, 0x32, 0x0, 0x2, 0x0, 0x0, 0x0, 0x1, 0x0, 0x0, 0x0, 0x10, 0x0, 0x0, 0x0, 0x22, 0xec, 0xff, 0xff, 0x0, 0x0, 0x0, 0x1, 0x14, 0x0, 0x0, 0x0, 0x1c, 0x0, 0x0, 0x0, 0x1c, 0x0, 0x0, 0x0, 0x36, 0x0, 0x0, 0x0, 0x44, 0x0, 0x0, 0x0, 0x2, 0x0, 0x0, 0x0, 0xff, 0xff, 0xff, 0xff, 0x10, 0x0, 0x0, 0x0, 0x6c, 0xeb, 0xff, 0xff, 0x2b, 0x0, 0x0, 0x0, 0x66, 0x75, 0x6e, 0x63, 0x74, 0x69, 0x6f, 0x6e, 0x61, 0x6c, 0x5f, 0x31, 0x2f, 0x6c, 0x73, 0x74, 0x6d, 0x5f, 0x6c, 0x61, 0x79, 0x65, 0x72, 0x5f, 0x31, 0x2f, 0x6c, 0x73, 0x74, 0x6d, 0x5f, 0x63, 0x65, 0x6c, 0x6c, 0x5f, 0x33, 0x2f, 0x6d, 0x75, 0x6c, 0x5f, 0x31, 0x0, 0x2, 0x0, 0x0, 0x0, 0x1, 0x0, 0x0, 0x0, 0x10, 0x0, 0x0, 0x0, 0x8a, 0xec, 0xff, 0xff, 0x0, 0x0, 0x0, 0x1, 0x14, 0x0, 0x0, 0x0, 0x1c, 0x0, 0x0, 0x0, 0x1c, 0x0, 0x0, 0x0, 0x35, 0x0, 0x0, 0x0, 0x44, 0x0, 0x0, 0x0, 0x2, 0x0, 0x0, 0x0, 0xff, 0xff, 0xff, 0xff, 0x10, 0x0, 0x0, 0x0, 0xd4, 0xeb, 0xff, 0xff, 0x2a, 0x0, 0x0, 0x0, 0x66, 0x75, 0x6e, 0x63, 0x74, 0x69, 0x6f, 0x6e, 0x61, 0x6c, 0x5f, 0x31, 0x2f, 0x6c, 0x73, 0x74, 0x6d, 0x5f, 0x6c, 0x61, 0x79, 0x65, 0x72, 0x5f, 0x31, 0x2f, 0x6c, 0x73, 0x74, 0x6d, 0x5f, 0x63, 0x65, 0x6c, 0x6c, 0x5f, 0x33, 0x2f, 0x54, 0x61, 0x6e, 0x68, 0x0, 0x0, 0x2, 0x0, 0x0, 0x0, 0x1, 0x0, 0x0, 0x0, 0x10, 0x0, 0x0, 0x0, 0xf2, 0xec, 0xff, 0xff, 0x0, 0x0, 0x0, 0x1, 0x14, 0x0, 0x0, 0x0, 0x1c, 0x0, 0x0, 0x0, 0x1c, 0x0, 0x0, 0x0, 0x34, 0x0, 0x0, 0x0, 0x48, 0x0, 0x0, 0x0, 0x2, 0x0, 0x0, 0x0, 0xff, 0xff, 0xff, 0xff, 0x10, 0x0, 0x0, 0x0, 0x3c, 0xec, 0xff, 0xff, 0x2f, 0x0, 0x0, 0x0, 0x66, 0x75, 0x6e, 0x63, 0x74, 0x69, 0x6f, 0x6e, 0x61, 0x6c, 0x5f, 0x31, 0x2f, 0x6c, 0x73, 0x74, 0x6d, 0x5f, 0x6c, 0x61, 0x79, 0x65, 0x72, 0x5f, 0x31, 0x2f, 0x6c, 0x73, 0x74, 0x6d, 0x5f, 0x63, 0x65, 0x6c, 0x6c, 0x5f, 0x33, 0x2f, 0x53, 0x69, 0x67, 0x6d, 0x6f, 0x69, 0x64, 0x5f, 0x32, 0x0, 0x2, 0x0, 0x0, 0x0, 0x1, 0x0, 0x0, 0x0, 0x10, 0x0, 0x0, 0x0, 0x5e, 0xed, 0xff, 0xff, 0x0, 0x0, 0x0, 0x1, 0x14, 0x0, 0x0, 0x0, 0x1c, 0x0, 0x0, 0x0, 0x1c, 0x0, 0x0, 0x0, 0x33, 0x0, 0x0, 0x0, 0x44, 0x0, 0x0, 0x0, 0x2, 0x0, 0x0, 0x0, 0xff, 0xff, 0xff, 0xff, 0x10, 0x0, 0x0, 0x0, 0xa8, 0xec, 0xff, 0xff, 0x29, 0x0, 0x0, 0x0, 0x66, 0x75, 0x6e, 0x63, 0x74, 0x69, 0x6f, 0x6e, 0x61, 0x6c, 0x5f, 0x31, 0x2f, 0x6c, 0x73, 0x74, 0x6d, 0x5f, 0x6c, 0x61, 0x79, 0x65, 0x72, 0x5f, 0x31, 0x2f, 0x6c, 0x73, 0x74, 0x6d, 0x5f, 0x63, 0x65, 0x6c, 0x6c, 0x5f, 0x33, 0x2f, 0x6d, 0x75, 0x6c, 0x0, 0x0, 0x0, 0x2, 0x0, 0x0, 0x0, 0x1, 0x0, 0x0, 0x0, 0x10, 0x0, 0x0, 0x0, 0xc6, 0xed, 0xff, 0xff, 0x0, 0x0, 0x0, 0x1, 0x14, 0x0, 0x0, 0x0, 0x1c, 0x0, 0x0, 0x0, 0x1c, 0x0, 0x0, 0x0, 0x32, 0x0, 0x0, 0x0, 0x48, 0x0, 0x0, 0x0, 0x2, 0x0, 0x0, 0x0, 0xff, 0xff, 0xff, 0xff, 0x10, 0x0, 0x0, 0x0, 0x10, 0xed, 0xff, 0xff, 0x2f, 0x0, 0x0, 0x0, 0x66, 0x75, 0x6e, 0x63, 0x74, 0x69, 0x6f, 0x6e, 0x61, 0x6c, 0x5f, 0x31, 0x2f, 0x6c, 0x73, 0x74, 0x6d, 0x5f, 0x6c, 0x61, 0x79, 0x65, 0x72, 0x5f, 0x31, 0x2f, 0x6c, 0x73, 0x74, 0x6d, 0x5f, 0x63, 0x65, 0x6c, 0x6c, 0x5f, 0x33, 0x2f, 0x53, 0x69, 0x67, 0x6d, 0x6f, 0x69, 0x64, 0x5f, 0x31, 0x0, 0x2, 0x0, 0x0, 0x0, 0x1, 0x0, 0x0, 0x0, 0x10, 0x0, 0x0, 0x0, 0x32, 0xee, 0xff, 0xff, 0x0, 0x0, 0x0, 0x1, 0x14, 0x0, 0x0, 0x0, 0x1c, 0x0, 0x0, 0x0, 0x1c, 0x0, 0x0, 0x0, 0x31, 0x0, 0x0, 0x0, 0x48, 0x0, 0x0, 0x0, 0x2, 0x0, 0x0, 0x0, 0xff, 0xff, 0xff, 0xff, 0x10, 0x0, 0x0, 0x0, 0x7c, 0xed, 0xff, 0xff, 0x2d, 0x0, 0x0, 0x0, 0x66, 0x75, 0x6e, 0x63, 0x74, 0x69, 0x6f, 0x6e, 0x61, 0x6c, 0x5f, 0x31, 0x2f, 0x6c, 0x73, 0x74, 0x6d, 0x5f, 0x6c, 0x61, 0x79, 0x65, 0x72, 0x5f, 0x31, 0x2f, 0x6c, 0x73, 0x74, 0x6d, 0x5f, 0x63, 0x65, 0x6c, 0x6c, 0x5f, 0x33, 0x2f, 0x53, 0x69, 0x67, 0x6d, 0x6f, 0x69, 0x64, 0x0, 0x0, 0x0, 0x2, 0x0, 0x0, 0x0, 0x1, 0x0, 0x0, 0x0, 0x10, 0x0, 0x0, 0x0, 0x9e, 0xee, 0xff, 0xff, 0x0, 0x0, 0x0, 0x1, 0x14, 0x0, 0x0, 0x0, 0x1c, 0x0, 0x0, 0x0, 0x1c, 0x0, 0x0, 0x0, 0x30, 0x0, 0x0, 0x0, 0x48, 0x0, 0x0, 0x0, 0x2, 0x0, 0x0, 0x0, 0xff, 0xff, 0xff, 0xff, 0x10, 0x0, 0x0, 0x0, 0xe8, 0xed, 0xff, 0xff, 0x2c, 0x0, 0x0, 0x0, 0x66, 0x75, 0x6e, 0x63, 0x74, 0x69, 0x6f, 0x6e, 0x61, 0x6c, 0x5f, 0x31, 0x2f, 0x6c, 0x73, 0x74, 0x6d, 0x5f, 0x6c, 0x61, 0x79, 0x65, 0x72, 0x5f, 0x31, 0x2f, 0x6c, 0x73, 0x74, 0x6d, 0x5f, 0x63, 0x65, 0x6c, 0x6c, 0x5f, 0x33, 0x2f, 0x73, 0x70, 0x6c, 0x69, 0x74, 0x33, 0x0, 0x0, 0x0, 0x0, 0x2, 0x0, 0x0, 0x0, 0x1, 0x0, 0x0, 0x0, 0x10, 0x0, 0x0, 0x0, 0xa, 0xef, 0xff, 0xff, 0x0, 0x0, 0x0, 0x1, 0x14, 0x0, 0x0, 0x0, 0x1c, 0x0, 0x0, 0x0, 0x1c, 0x0, 0x0, 0x0, 0x2f, 0x0, 0x0, 0x0, 0x48, 0x0, 0x0, 0x0, 0x2, 0x0, 0x0, 0x0, 0xff, 0xff, 0xff, 0xff, 0x10, 0x0, 0x0, 0x0, 0x54, 0xee, 0xff, 0xff, 0x2c, 0x0, 0x0, 0x0, 0x66, 0x75, 0x6e, 0x63, 0x74, 0x69, 0x6f, 0x6e, 0x61, 0x6c, 0x5f, 0x31, 0x2f, 0x6c, 0x73, 0x74, 0x6d, 0x5f, 0x6c, 0x61, 0x79, 0x65, 0x72, 0x5f, 0x31, 0x2f, 0x6c, 0x73, 0x74, 0x6d, 0x5f, 0x63, 0x65, 0x6c, 0x6c, 0x5f, 0x33, 0x2f, 0x73, 0x70, 0x6c, 0x69, 0x74, 0x32, 0x0, 0x0, 0x0, 0x0, 0x2, 0x0, 0x0, 0x0, 0x1, 0x0, 0x0, 0x0, 0x10, 0x0, 0x0, 0x0, 0x76, 0xef, 0xff, 0xff, 0x0, 0x0, 0x0, 0x1, 0x14, 0x0, 0x0, 0x0, 0x1c, 0x0, 0x0, 0x0, 0x1c, 0x0, 0x0, 0x0, 0x2e, 0x0, 0x0, 0x0, 0x48, 0x0, 0x0, 0x0, 0x2, 0x0, 0x0, 0x0, 0xff, 0xff, 0xff, 0xff, 0x10, 0x0, 0x0, 0x0, 0xc0, 0xee, 0xff, 0xff, 0x2c, 0x0, 0x0, 0x0, 0x66, 0x75, 0x6e, 0x63, 0x74, 0x69, 0x6f, 0x6e, 0x61, 0x6c, 0x5f, 0x31, 0x2f, 0x6c, 0x73, 0x74, 0x6d, 0x5f, 0x6c, 0x61, 0x79, 0x65, 0x72, 0x5f, 0x31, 0x2f, 0x6c, 0x73, 0x74, 0x6d, 0x5f, 0x63, 0x65, 0x6c, 0x6c, 0x5f, 0x33, 0x2f, 0x73, 0x70, 0x6c, 0x69, 0x74, 0x31, 0x0, 0x0, 0x0, 0x0, 0x2, 0x0, 0x0, 0x0, 0x1, 0x0, 0x0, 0x0, 0x10, 0x0, 0x0, 0x0, 0xe2, 0xef, 0xff, 0xff, 0x0, 0x0, 0x0, 0x1, 0x14, 0x0, 0x0, 0x0, 0x1c, 0x0, 0x0, 0x0, 0x1c, 0x0, 0x0, 0x0, 0x2d, 0x0, 0x0, 0x0, 0x44, 0x0, 0x0, 0x0, 0x2, 0x0, 0x0, 0x0, 0xff, 0xff, 0xff, 0xff, 0x10, 0x0, 0x0, 0x0, 0x2c, 0xef, 0xff, 0xff, 0x2b, 0x0, 0x0, 0x0, 0x66, 0x75, 0x6e, 0x63, 0x74, 0x69, 0x6f, 0x6e, 0x61, 0x6c, 0x5f, 0x31, 0x2f, 0x6c, 0x73, 0x74, 0x6d, 0x5f, 0x6c, 0x61, 0x79, 0x65, 0x72, 0x5f, 0x31, 0x2f, 0x6c, 0x73, 0x74, 0x6d, 0x5f, 0x63, 0x65, 0x6c, 0x6c, 0x5f, 0x33, 0x2f, 0x73, 0x70, 0x6c, 0x69, 0x74, 0x0, 0x2, 0x0, 0x0, 0x0, 0x1, 0x0, 0x0, 0x0, 0x10, 0x0, 0x0, 0x0, 0x4a, 0xf0, 0xff, 0xff, 0x0, 0x0, 0x0, 0x1, 0x14, 0x0, 0x0, 0x0, 0x1c, 0x0, 0x0, 0x0, 0x1c, 0x0, 0x0, 0x0, 0x2c, 0x0, 0x0, 0x0, 0x44, 0x0, 0x0, 0x0, 0x2, 0x0, 0x0, 0x0, 0xff, 0xff, 0xff, 0xff, 0x40, 0x0, 0x0, 0x0, 0x94, 0xef, 0xff, 0xff, 0x2b, 0x0, 0x0, 0x0, 0x66, 0x75, 0x6e, 0x63, 0x74, 0x69, 0x6f, 0x6e, 0x61, 0x6c, 0x5f, 0x31, 0x2f, 0x6c, 0x73, 0x74, 0x6d, 0x5f, 0x6c, 0x61, 0x79, 0x65, 0x72, 0x5f, 0x31, 0x2f, 0x6c, 0x73, 0x74, 0x6d, 0x5f, 0x63, 0x65, 0x6c, 0x6c, 0x5f, 0x33, 0x2f, 0x61, 0x64, 0x64, 0x5f, 0x31, 0x0, 0x2, 0x0, 0x0, 0x0, 0x1, 0x0, 0x0, 0x0, 0x40, 0x0, 0x0, 0x0, 0xb2, 0xf0, 0xff, 0xff, 0x0, 0x0, 0x0, 0x1, 0x14, 0x0, 0x0, 0x0, 0x1c, 0x0, 0x0, 0x0, 0x1c, 0x0, 0x0, 0x0, 0x2b, 0x0, 0x0, 0x0, 0x44, 0x0, 0x0, 0x0, 0x2, 0x0, 0x0, 0x0, 0xff, 0xff, 0xff, 0xff, 0x40, 0x0, 0x0, 0x0, 0xfc, 0xef, 0xff, 0xff, 0x29, 0x0, 0x0, 0x0, 0x66, 0x75, 0x6e, 0x63, 0x74, 0x69, 0x6f, 0x6e, 0x61, 0x6c, 0x5f, 0x31, 0x2f, 0x6c, 0x73, 0x74, 0x6d, 0x5f, 0x6c, 0x61, 0x79, 0x65, 0x72, 0x5f, 0x31, 0x2f, 0x6c, 0x73, 0x74, 0x6d, 0x5f, 0x63, 0x65, 0x6c, 0x6c, 0x5f, 0x33, 0x2f, 0x61, 0x64, 0x64, 0x0, 0x0, 0x0, 0x2, 0x0, 0x0, 0x0, 0x1, 0x0, 0x0, 0x0, 0x40, 0x0, 0x0, 0x0, 0x1a, 0xf1, 0xff, 0xff, 0x0, 0x0, 0x0, 0x1, 0x14, 0x0, 0x0, 0x0, 0x1c, 0x0, 0x0, 0x0, 0x1c, 0x0, 0x0, 0x0, 0x2a, 0x0, 0x0, 0x0, 0x48, 0x0, 0x0, 0x0, 0x2, 0x0, 0x0, 0x0, 0xff, 0xff, 0xff, 0xff, 0x40, 0x0, 0x0, 0x0, 0x64, 0xf0, 0xff, 0xff, 0x2c, 0x0, 0x0, 0x0, 0x66, 0x75, 0x6e, 0x63, 0x74, 0x69, 0x6f, 0x6e, 0x61, 0x6c, 0x5f, 0x31, 0x2f, 0x6c, 0x73, 0x74, 0x6d, 0x5f, 0x6c, 0x61, 0x79, 0x65, 0x72, 0x5f, 0x31, 0x2f, 0x6c, 0x73, 0x74, 0x6d, 0x5f, 0x63, 0x65, 0x6c, 0x6c, 0x5f, 0x33, 0x2f, 0x4d, 0x61, 0x74, 0x4d, 0x75, 0x6c, 0x0, 0x0, 0x0, 0x0, 0x2, 0x0, 0x0, 0x0, 0x1, 0x0, 0x0, 0x0, 0x40, 0x0, 0x0, 0x0, 